{
    "<unk>": 0,
    "<sos>": 1,
    "<eos>": 2,
    "<pad>": 3,
    "a": 4,
    "b": 5,
    "c": 6,
    "d": 7,
    "e": 8,
    "f": 9,
    "g": 10,
    "h": 11,
    "i": 12,
    "j": 13,
    "k": 14,
    "l": 15,
    "m": 16,
    "n": 17,
    "o": 18,
    "p": 19,
    "q": 20,
    "r": 21,
    "s": 22,
    "t": 23,
    "u": 24,
    "v": 25,
    "w": 26,
    "x": 27,
    "y": 28,
    "z": 29,
    "A": 30,
    "B": 31,
    "C": 32,
    "D": 33,
    "E": 34,
    "F": 35,
    "G": 36,
    "H": 37,
    "I": 38,
    "J": 39,
    "K": 40,
    "L": 41,
    "M": 42,
    "N": 43,
    "O": 44,
    "P": 45,
    "Q": 46,
    "R": 47,
    "S": 48,
    "T": 49,
    "U": 50,
    "V": 51,
    "W": 52,
    "X": 53,
    "Y": 54,
    "Z": 55,
    "0": 56,
    "1": 57,
    "2": 58,
    "3": 59,
    "4": 60,
    "5": 61,
    "6": 62,
    "7": 63,
    "8": 64,
    "9": 65,
    "!": 66,
    "@": 67,
    "#": 68,
    "$": 69,
    "%": 70,
    "^": 71,
    "&": 72,
    "*": 73,
    "(": 74,
    ")": 75,
    "-": 76,
    "_": 77,
    "=": 78,
    "+": 79,
    "[": 80,
    "]": 81,
    "{": 82,
    "}": 83,
    "\\": 84,
    "|": 85,
    ";": 86,
    ":": 87,
    "'": 88,
    "\"": 89,
    "<": 90,
    ">": 91,
    ",": 92,
    ".": 93,
    "?": 94,
    "/": 95,
    "`": 96,
    "~": 97,
    " ": 98,
    "th": 99,
    "in": 100,
    "an": 101,
    "er": 102,
    "on": 103,
    "re": 104,
    "the": 105,
    "at": 106,
    "en": 107,
    "or": 108,
    "es": 109,
    "is": 110,
    "ou": 111,
    "al": 112,
    "to": 113,
    "and": 114,
    "ing": 115,
    "it": 116,
    "ar": 117,
    "as": 118,
    "le": 119,
    "of": 120,
    "ion": 121,
    "ed": 122,
    "ic": 123,
    "st": 124,
    "de": 125,
    "ro": 126,
    "ch": 127,
    "ent": 128,
    "me": 129,
    "el": 130,
    "ct": 131,
    "se": 132,
    "il": 133,
    "co": 134,
    "for": 135,
    "you": 136,
    "he": 137,
    "be": 138,
    "ve": 139,
    "ow": 140,
    "mp": 141,
    "un": 142,
    "ra": 143,
    "that": 144,
    "ce": 145,
    "ation": 146,
    "us": 147,
    "are": 148,
    "ge": 149,
    "ig": 150,
    "ut": 151,
    "con": 152,
    "mo": 153,
    "ma": 154,
    "su": 155,
    "ab": 156,
    "ol": 157,
    "if": 158,
    "ver": 159,
    "pro": 160,
    "ex": 161,
    "ad": 162,
    "wi": 163,
    "ot": 164,
    "ter": 165,
    "wh": 166,
    "qu": 167,
    "id": 168,
    "The": 169,
    "all": 170,
    "pl": 171,
    "ul": 172,
    "ay": 173,
    "can": 174,
    "with": 175,
    "ur": 176,
    "ke": 177,
    "ir": 178,
    "est": 179,
    "ne": 180,
    "pe": 181,
    "ate": 182,
    "so": 183,
    "res": 184,
    "ers": 185,
    "lo": 186,
    "ment": 187,
    "ri": 188,
    "ha": 189,
    "ere": 190,
    "ac": 191,
    "op": 192,
    "ess": 193,
    "te": 194,
    "ld": 195,
    "um": 196,
    "am": 197,
    "li": 198,
    "ist": 199,
    "ant": 200,
    "ap": 201,
    "et": 202,
    "di": 203,
    "ti": 204,
    "ly": 205,
    "Th": 206,
    "out": 207,
    "ill": 208,
    "wor": 209,
    "ity": 210,
    "igh": 211,
    "si": 212,
    "your": 213,
    "ta": 214,
    "we": 215,
    "ther": 216,
    "do": 217,
    "ort": 218,
    "not": 219,
    "sh": 220,
    "po": 221,
    "per": 222,
    "ould": 223,
    "act": 224,
    "by": 225,
    "ci": 226,
    "end": 227,
    "have": 228,
    "ine": 229,
    "oun": 230,
    "fe": 231,
    "tr": 232,
    "cl": 233,
    "vi": 234,
    "ions": 235,
    "our": 236,
    "od": 237,
    "art": 238,
    "form": 239,
    "any": 240,
    "mm": 241,
    "ame": 242,
    "comp": 243,
    "age": 244,
    "imp": 245,
    "ure": 246,
    "ich": 247,
    "rom": 248,
    "ans": 249,
    "ive": 250,
    "In": 251,
    "one": 252,
    "der": 253,
    "able": 254,
    "ight": 255,
    "ag": 256,
    "em": 257,
    "use": 258,
    "from": 259,
    "ies": 260,
    "str": 261,
    "iz": 262,
    "du": 263,
    "ach": 264,
    "int": 265,
    "cre": 266,
    "ell": 267,
    "It": 268,
    "tra": 269,
    "This": 270,
    "but": 271,
    "this": 272,
    "up": 273,
    "om": 274,
    "ang": 275,
    "was": 276,
    "ass": 277,
    "la": 278,
    "ind": 279,
    "ction": 280,
    "ile": 281,
    "fer": 282,
    "will": 283,
    "ence": 284,
    "king": 285,
    "Wh": 286,
    "has": 287,
    "ber": 288,
    "ite": 289,
    "other": 290,
    "vel": 291,
    "ext": 292,
    "dat": 293,
    "sp": 294,
    "go": 295,
    "ks": 296,
    "ally": 297,
    "del": 298,
    "now": 299,
    "more": 300,
    "im": 301,
    "ue": 302,
    "des": 303,
    "hel": 304,
    "their": 305,
    "ase": 306,
    "bo": 307,
    "some": 308,
    "ser": 309,
    "cess": 310,
    "its": 311,
    "ance": 312,
    "fo": 313,
    "val": 314,
    "ep": 315,
    "which": 316,
    "cont": 317,
    "low": 318,
    "ble": 319,
    "way": 320,
    "ard": 321,
    "pr": 322,
    "pre": 323,
    "ust": 324,
    "av": 325,
    "ts": 326,
    "ice": 327,
    "gen": 328,
    "ous": 329,
    "ie": 330,
    "ical": 331,
    "help": 332,
    "spe": 333,
    "about": 334,
    "used": 335,
    "iv": 336,
    "gh": 337,
    "ty": 338,
    "ound": 339,
    "time": 340,
    "ations": 341,
    "num": 342,
    "ph": 343,
    "sy": 344,
    "dif": 345,
    "comm": 346,
    "know": 347,
    "ong": 348,
    "ces": 349,
    "ack": 350,
    "ck": 351,
    "je": 352,
    "ated": 353,
    "fun": 354,
    "gra": 355,
    "pos": 356,
    "they": 357,
    "ud": 358,
    "also": 359,
    "no": 360,
    "ific": 361,
    "ace": 362,
    "amp": 363,
    "import": 364,
    "ren": 365,
    "ough": 366,
    "ary": 367,
    "ign": 368,
    "ful": 369,
    "ain": 370,
    "ef": 371,
    "model": 372,
    "data": 373,
    "play": 374,
    "les": 375,
    "ob": 376,
    "ever": 377,
    "ial": 378,
    "cal": 379,
    "ory": 380,
    "os": 381,
    "pt": 382,
    "would": 383,
    "cur": 384,
    "need": 385,
    "inter": 386,
    "incl": 387,
    "my": 388,
    "pres": 389,
    "man": 390,
    "may": 391,
    "ast": 392,
    "new": 393,
    "ca": 394,
    "que": 395,
    "put": 396,
    "How": 397,
    "tw": 398,
    "such": 399,
    "ition": 400,
    "get": 401,
    "mat": 402,
    "like": 403,
    "au": 404,
    "ari": 405,
    "vide": 406,
    "par": 407,
    "com": 408,
    "quest": 409,
    "dis": 410,
    "You": 411,
    "bet": 412,
    "ip": 413,
    "ear": 414,
    "her": 415,
    "gr": 416,
    "ev": 417,
    "og": 418,
    "cri": 419,
    "ire": 420,
    "An": 421,
    "work": 422,
    "led": 423,
    "using": 424,
    "how": 425,
    "over": 426,
    "port": 427,
    "pers": 428,
    "ject": 429,
    "ens": 430,
    "who": 431,
    "min": 432,
    "what": 433,
    "div": 434,
    "tur": 435,
    "stem": 436,
    "thing": 437,
    "ds": 438,
    "lear": 439,
    "ors": 440,
    "make": 441,
    "What": 442,
    "day": 443,
    "ry": 444,
    "fol": 445,
    "ho": 446,
    "bl": 447,
    "ments": 448,
    "there": 449,
    "cor": 450,
    "them": 451,
    "own": 452,
    "ok": 453,
    "col": 454,
    "differ": 455,
    "ual": 456,
    "bu": 457,
    "wer": 458,
    "ning": 459,
    "If": 460,
    "bas": 461,
    "his": 462,
    "tain": 463,
    "number": 464,
    "set": 465,
    "add": 466,
    "lang": 467,
    "br": 468,
    "fic": 469,
    "af": 470,
    "ating": 471,
    "elf": 472,
    "let": 473,
    "gener": 474,
    "system": 475,
    "eng": 476,
    "person": 477,
    "each": 478,
    "ish": 479,
    "code": 480,
    "stand": 481,
    "important": 482,
    "AI": 483,
    "ten": 484,
    "inform": 485,
    "Here": 486,
    "could": 487,
    "ms": 488,
    "function": 489,
    "fin": 490,
    "part": 491,
    "pon": 492,
    "abil": 493,
    "St": 494,
    "wr": 495,
    "langu": 496,
    "sol": 497,
    "So": 498,
    "cul": 499,
    "into": 500,
    "ample": 501,
    "ting": 502,
    "ia": 503,
    "vers": 504,
    "coun": 505,
    "row": 506,
    "high": 507,
    "then": 508,
    "under": 509,
    "ange": 510,
    "rel": 511,
    "ely": 512,
    "should": 513,
    "follow": 514,
    "than": 515,
    "ak": 516,
    "irst": 517,
    "ild": 518,
    "ree": 519,
    "ics": 520,
    "ents": 521,
    "cons": 522,
    "many": 523,
    "ick": 524,
    "peri": 525,
    "ele": 526,
    "information": 527,
    "inv": 528,
    "turn": 529,
    "cus": 530,
    "ities": 531,
    "text": 532,
    "ple": 533,
    "spec": 534,
    "char": 535,
    "two": 536,
    "language": 537,
    "provide": 538,
    "sure": 539,
    "vari": 540,
    "ll": 541,
    "fect": 542,
    "ates": 543,
    "fore": 544,
    "cy": 545,
    "lif": 546,
    "reat": 547,
    "hum": 548,
    "list": 549,
    "Re": 550,
    "cial": 551,
    "game": 552,
    "As": 553,
    "velop": 554,
    "different": 555,
    "He": 556,
    "world": 557,
    "ys": 558,
    "ople": 559,
    "self": 560,
    "name": 561,
    "stru": 562,
    "ween": 563,
    "fl": 564,
    "main": 565,
    "ower": 566,
    "expl": 567,
    "gu": 568,
    "fi": 569,
    "produ": 570,
    "between": 571,
    "ath": 572,
    "try": 573,
    "che": 574,
    "ise": 575,
    "py": 576,
    "read": 577,
    "chn": 578,
    "ures": 579,
    "gg": 580,
    "ress": 581,
    "mar": 582,
    "olog": 583,
    "process": 584,
    "find": 585,
    "ular": 586,
    "sul": 587,
    "example": 588,
    "people": 589,
    "when": 590,
    "pri": 591,
    "first": 592,
    "En": 593,
    "sk": 594,
    "ze": 595,
    "top": 596,
    "want": 597,
    "where": 598,
    "ider": 599,
    "arch": 600,
    "reg": 601,
    "most": 602,
    "start": 603,
    "trans": 604,
    "appl": 605,
    "line": 606,
    "been": 607,
    "sa": 608,
    "lar": 609,
    "rough": 610,
    "mon": 611,
    "just": 612,
    "cer": 613,
    "tion": 614,
    "ative": 615,
    "und": 616,
    "ving": 617,
    "only": 618,
    "develop": 619,
    "respon": 620,
    "rect": 621,
    "ide": 622,
    "Con": 623,
    "cu": 624,
    "specific": 625,
    "Ch": 626,
    "ves": 627,
    "file": 628,
    "requ": 629,
    "To": 630,
    "als": 631,
    "cho": 632,
    "thon": 633,
    "However": 634,
    "Un": 635,
    "sur": 636,
    "answer": 637,
    "For": 638,
    "sub": 639,
    "dep": 640,
    "create": 641,
    "ability": 642,
    "ize": 643,
    "tas": 644,
    "jo": 645,
    "da": 646,
    "train": 647,
    "att": 648,
    "Co": 649,
    "tim": 650,
    "back": 651,
    "fact": 652,
    "year": 653,
    "come": 654,
    "aa": 655,
    "cript": 656,
    "ew": 657,
    "through": 658,
    "inclu": 659,
    "cent": 660,
    "experi": 661,
    "includ": 662,
    "techn": 663,
    "return": 664,
    "mem": 665,
    "ved": 666,
    "power": 667,
    "these": 668,
    "based": 669,
    "she": 670,
    "sible": 671,
    "best": 672,
    "ways": 673,
    "ident": 674,
    "step": 675,
    "life": 676,
    "valu": 677,
    "pect": 678,
    "ru": 679,
    "pu": 680,
    "while": 681,
    "ings": 682,
    "ters": 683,
    "prov": 684,
    "fil": 685,
    "cause": 686,
    "tal": 687,
    "cap": 688,
    "mer": 689,
    "net": 690,
    "sm": 691,
    "ese": 692,
    "ink": 693,
    "There": 694,
    "ences": 695,
    "key": 696,
    "including": 697,
    "class": 698,
    "progra": 699,
    "understand": 700,
    "ices": 701,
    "well": 702,
    "old": 703,
    "air": 704,
    "Ex": 705,
    "ater": 706,
    "equ": 707,
    "med": 708,
    "We": 709,
    "bre": 710,
    "ith": 711,
    "charact": 712,
    "take": 713,
    "bel": 714,
    "red": 715,
    "had": 716,
    "resul": 717,
    "mul": 718,
    "sup": 719,
    "sign": 720,
    "gy": 721,
    "ety": 722,
    "don": 723,
    "They": 724,
    "Pro": 725,
    "following": 726,
    "vis": 727,
    "long": 728,
    "see": 729,
    "feel": 730,
    "ced": 731,
    "lex": 732,
    "perform": 733,
    "word": 734,
    "were": 735,
    "value": 736,
    "ss": 737,
    "type": 738,
    "ima": 739,
    "ener": 740,
    "allow": 741,
    "car": 742,
    "here": 743,
    "Ad": 744,
    "uni": 745,
    "curren": 746,
    "depend": 747,
    "cond": 748,
    "appro": 749,
    "mit": 750,
    "ose": 751,
    "good": 752,
    "serv": 753,
    "ature": 754,
    "pol": 755,
    "known": 756,
    "alth": 757,
    "ps": 758,
    "run": 759,
    "consider": 760,
    "hand": 761,
    "ict": 762,
    "plan": 763,
    "Al": 764,
    "dist": 765,
    "provid": 766,
    "point": 767,
    "questions": 768,
    "ier": 769,
    "does": 770,
    "kes": 771,
    "being": 772,
    "tri": 773,
    "oc": 774,
    "ons": 775,
    "light": 776,
    "pot": 777,
    "ality": 778,
    "place": 779,
    "ner": 780,
    "search": 781,
    "ket": 782,
    "emp": 783,
    "ient": 784,
    "adv": 785,
    "oth": 786,
    "ily": 787,
    "De": 788,
    "ness": 789,
    "sing": 790,
    "ship": 791,
    "thod": 792,
    "pop": 793,
    "both": 794,
    "lead": 795,
    "ential": 796,
    "user": 797,
    "struct": 798,
    "inst": 799,
    "nam": 800,
    "land": 801,
    "write": 802,
    "mean": 803,
    "ava": 804,
    "def": 805,
    "typ": 806,
    "input": 807,
    "very": 808,
    "ify": 809,
    "mil": 810,
    "human": 811,
    "tern": 812,
    "include": 813,
    "sto": 814,
    "object": 815,
    "method": 816,
    "ication": 817,
    "ution": 818,
    "possible": 819,
    "print": 820,
    "off": 821,
    "current": 822,
    "ake": 823,
    "design": 824,
    "cr": 825,
    "ian": 826,
    "down": 827,
    "ult": 828,
    "less": 829,
    "ft": 830,
    "sent": 831,
    "care": 832,
    "question": 833,
    "ung": 834,
    "cis": 835,
    "impro": 836,
    "die": 837,
    "hap": 838,
    "commun": 839,
    "effect": 840,
    "lect": 841,
    "temp": 842,
    "small": 843,
    "present": 844,
    "term": 845,
    "side": 846,
    "product": 847,
    "state": 848,
    "oper": 849,
    "gan": 850,
    "loc": 851,
    "simp": 852,
    "date": 853,
    "ized": 854,
    "test": 855,
    "great": 856,
    "ins": 857,
    "den": 858,
    "comput": 859,
    "bers": 860,
    "eas": 861,
    "divid": 862,
    "proble": 863,
    "often": 864,
    "vir": 865,
    "ger": 866,
    "range": 867,
    "tom": 868,
    "bot": 869,
    "mu": 870,
    "build": 871,
    "ann": 872,
    "iness": 873,
    "learning": 874,
    "require": 875,
    "same": 876,
    "giv": 877,
    "real": 878,
    "Py": 879,
    "ore": 880,
    "press": 881,
    "Be": 882,
    "right": 883,
    "ines": 884,
    "words": 885,
    "fri": 886,
    "ris": 887,
    "clo": 888,
    "iter": 889,
    "pass": 890,
    "sof": 891,
    "lease": 892,
    "fiel": 893,
    "level": 894,
    "ically": 895,
    "table": 896,
    "Wr": 897,
    "conf": 898,
    "water": 899,
    "ract": 900,
    "ages": 901,
    "large": 902,
    "cept": 903,
    "health": 904,
    "ah": 905,
    "ribut": 906,
    "view": 907,
    "son": 908,
    "ense": 909,
    "war": 910,
    "every": 911,
    "output": 912,
    "made": 913,
    "ave": 914,
    "ural": 915,
    "contro": 916,
    "gl": 917,
    "multi": 918,
    "sour": 919,
    "ark": 920,
    "bi": 921,
    "complex": 922,
    "mis": 923,
    "hist": 924,
    "On": 925,
    "ward": 926,
    "friend": 927,
    "ization": 928,
    "And": 929,
    "support": 930,
    "ding": 931,
    "mal": 932,
    "even": 933,
    "const": 934,
    "Write": 935,
    "anal": 936,
    "pur": 937,
    "But": 938,
    "move": 939,
    "ied": 940,
    "uring": 941,
    "prof": 942,
    "atures": 943,
    "sit": 944,
    "head": 945,
    "ref": 946,
    "open": 947,
    "size": 948,
    "string": 949,
    "character": 950,
    "ational": 951,
    "after": 952,
    "bus": 953,
    "aut": 954,
    "log": 955,
    "Add": 956,
    "ask": 957,
    "better": 958,
    "before": 959,
    "pen": 960,
    "Some": 961,
    "always": 962,
    "por": 963,
    "sive": 964,
    "leg": 965,
    "conne": 966,
    "contin": 967,
    "pat": 968,
    "access": 969,
    "because": 970,
    "fra": 971,
    "story": 972,
    "context": 973,
    "again": 974,
    "Can": 975,
    "fam": 976,
    "belie": 977,
    "incre": 978,
    "She": 979,
    "cc": 980,
    "tions": 981,
    "show": 982,
    "Let": 983,
    "learn": 984,
    "itive": 985,
    "invol": 986,
    "ven": 987,
    "grou": 988,
    "ited": 989,
    "say": 990,
    "without": 991,
    "interest": 992,
    "around": 993,
    "Please": 994,
    "sc": 995,
    "contain": 996,
    "making": 997,
    "must": 998,
    "order": 999,
    "personal": 1000,
    "ron": 1001,
    "mach": 1002,
    "rand": 1003,
    "individ": 1004,
    "partic": 1005,
    "verse": 1006,
    "calcul": 1007,
    "hy": 1008,
    "gor": 1009,
    "give": 1010,
    "ON": 1011,
    "vent": 1012,
    "ben": 1013,
    "project": 1014,
    "ank": 1015,
    "face": 1016,
    "him": 1017,
    "vo": 1018,
    "uses": 1019,
    "summ": 1020,
    "Python": 1021,
    "Ar": 1022,
    "ology": 1023,
    "app": 1024,
    "tract": 1025,
    "individual": 1026,
    "ames": 1027,
    "result": 1028,
    "assist": 1029,
    "publ": 1030,
    "improve": 1031,
    "io": 1032,
    "cli": 1033,
    "ón": 1034,
    "direct": 1035,
    "team": 1036,
    "years": 1037,
    "na": 1038,
    "lement": 1039,
    "models": 1040,
    "ton": 1041,
    "experience": 1042,
    "Is": 1043,
    "No": 1044,
    "Le": 1045,
    "ious": 1046,
    "Do": 1047,
    "sci": 1048,
    "mus": 1049,
    "dra": 1050,
    "stud": 1051,
    "tell": 1052,
    "skill": 1053,
    "mi": 1054,
    "gin": 1055,
    "python": 1056,
    "ional": 1057,
    "cle": 1058,
    "ody": 1059,
    "mess": 1060,
    "tware": 1061,
    "ball": 1062,
    "fa": 1063,
    "ст": 1064,
    "une": 1065,
    "invest": 1066,
    "relation": 1067,
    "ator": 1068,
    "reas": 1069,
    "soci": 1070,
    "ray": 1071,
    "diffic": 1072,
    "grow": 1073,
    "values": 1074,
    "tool": 1075,
    "potential": 1076,
    "Jo": 1077,
    "ric": 1078,
    "bro": 1079,
    "tasks": 1080,
    "writ": 1081,
    "ein": 1082,
    "zz": 1083,
    "bin": 1084,
    "means": 1085,
    "space": 1086,
    "still": 1087,
    "Sure": 1088,
    "though": 1089,
    "ital": 1090,
    "company": 1091,
    "energy": 1092,
    "These": 1093,
    "ants": 1094,
    "ash": 1095,
    "love": 1096,
    "few": 1097,
    "ications": 1098,
    "ars": 1099,
    "count": 1100,
    "performance": 1101,
    "might": 1102,
    "chall": 1103,
    "Use": 1104,
    "har": 1105,
    "sever": 1106,
    "proper": 1107,
    "correct": 1108,
    "control": 1109,
    "vol": 1110,
    "ub": 1111,
    "ien": 1112,
    "itional": 1113,
    "ror": 1114,
    "elect": 1115,
    "player": 1116,
    "strong": 1117,
    "change": 1118,
    "sty": 1119,
    "Pl": 1120,
    "web": 1121,
    "vely": 1122,
    "path": 1123,
    "bit": 1124,
    "much": 1125,
    "aaaa": 1126,
    "aster": 1127,
    "dev": 1128,
    "tail": 1129,
    "room": 1130,
    "relationship": 1131,
    "uc": 1132,
    "prote": 1133,
    "redu": 1134,
    "ken": 1135,
    "gre": 1136,
    "lab": 1137,
    "total": 1138,
    "viron": 1139,
    "popular": 1140,
    "cut": 1141,
    "case": 1142,
    "member": 1143,
    "ste": 1144,
    "ount": 1145,
    "numbers": 1146,
    "LL": 1147,
    "found": 1148,
    "atch": 1149,
    "gether": 1150,
    "bed": 1151,
    "body": 1152,
    "lik": 1153,
    "sequ": 1154,
    "systems": 1155,
    "sor": 1156,
    "bal": 1157,
    "til": 1158,
    "command": 1159,
    "Over": 1160,
    "ases": 1161,
    "aw": 1162,
    "sis": 1163,
    "Cre": 1164,
    "city": 1165,
    "ually": 1166,
    "called": 1167,
    "keep": 1168,
    "bil": 1169,
    "issu": 1170,
    "organ": 1171,
    "features": 1172,
    "hour": 1173,
    "content": 1174,
    "Se": 1175,
    "sal": 1176,
    "meaning": 1177,
    "did": 1178,
    "未央": 1179,
    "未央未央": 1180,
    "ata": 1181,
    "business": 1182,
    "works": 1183,
    "Hel": 1184,
    "others": 1185,
    "research": 1186,
    "ted": 1187,
    "short": 1188,
    "effic": 1189,
    "field": 1190,
    "blo": 1191,
    "ince": 1192,
    "men": 1193,
    "something": 1194,
    "action": 1195,
    "training": 1196,
    "signific": 1197,
    "manage": 1198,
    "dri": 1199,
    "express": 1200,
    "ism": 1201,
    "activ": 1202,
    "software": 1203,
    "ensure": 1204,
    "environ": 1205,
    "food": 1206,
    "hn": 1207,
    "think": 1208,
    "times": 1209,
    "next": 1210,
    "wide": 1211,
    "call": 1212,
    "development": 1213,
    "generate": 1214,
    "connect": 1215,
    "together": 1216,
    "mag": 1217,
    "ggest": 1218,
    "nat": 1219,
    "ery": 1220,
    "represent": 1221,
    "para": 1222,
    "Mo": 1223,
    "ax": 1224,
    "ross": 1225,
    "zu": 1226,
    "chang": 1227,
    "pi": 1228,
    "simple": 1229,
    "Au": 1230,
    "steps": 1231,
    "oking": 1232,
    "things": 1233,
    "script": 1234,
    "given": 1235,
    "resour": 1236,
    "una": 1237,
    "mb": 1238,
    "ats": 1239,
    "social": 1240,
    "image": 1241,
    "Qu": 1242,
    "ai": 1243,
    "joy": 1244,
    "ek": 1245,
    "factors": 1246,
    "tle": 1247,
    "program": 1248,
    "decis": 1249,
    "phys": 1250,
    "problem": 1251,
    "suc": 1252,
    "group": 1253,
    "ture": 1254,
    "gorith": 1255,
    "needs": 1256,
    "strate": 1257,
    "color": 1258,
    "то": 1259,
    "When": 1260,
    "descri": 1261,
    "item": 1262,
    "sum": 1263,
    "three": 1264,
    "Fin": 1265,
    "pract": 1266,
    "weight": 1267,
    "inte": 1268,
    "IN": 1269,
    "machine": 1270,
    "avail": 1271,
    "public": 1272,
    "indow": 1273,
    "fut": 1274,
    "на": 1275,
    "difficult": 1276,
    "ased": 1277,
    "ER": 1278,
    "suggest": 1279,
    "last": 1280,
    "ling": 1281,
    "simil": 1282,
    "non": 1283,
    "likely": 1284,
    "rain": 1285,
    "My": 1286,
    "cost": 1287,
    "AS": 1288,
    "book": 1289,
    "emo": 1290,
    "local": 1291,
    "ively": 1292,
    "programm": 1293,
    "takes": 1294,
    "graph": 1295,
    "sch": 1296,
    "One": 1297,
    "ни": 1298,
    "ges": 1299,
    "ра": 1300,
    "role": 1301,
    "rest": 1302,
    "skills": 1303,
    "ables": 1304,
    "cing": 1305,
    "unique": 1306,
    "pare": 1307,
    "Name": 1308,
    "ро": 1309,
    "limit": 1310,
    "similar": 1311,
    "variety": 1312,
    "common": 1313,
    "message": 1314,
    "dig": 1315,
    "algorith": 1316,
    "several": 1317,
    "please": 1318,
    "random": 1319,
    "pred": 1320,
    "Tr": 1321,
    "task": 1322,
    "tu": 1323,
    "note": 1324,
    "Wor": 1325,
    "cover": 1326,
    "ado": 1327,
    "general": 1328,
    "ledge": 1329,
    "impact": 1330,
    "cra": 1331,
    "Your": 1332,
    "meas": 1333,
    "why": 1334,
    "ible": 1335,
    "stat": 1336,
    "cell": 1337,
    "ouse": 1338,
    "second": 1339,
    "pa": 1340,
    "ground": 1341,
    "commend": 1342,
    "itions": 1343,
    "но": 1344,
    "Create": 1345,
    "mind": 1346,
    "promp": 1347,
    "ists": 1348,
    "ply": 1349,
    "ye": 1350,
    "rele": 1351,
    "ush": 1352,
    "Des": 1353,
    "Lo": 1354,
    "history": 1355,
    "nor": 1356,
    "allows": 1357,
    "defin": 1358,
    "home": 1359,
    "dr": 1360,
    "tar": 1361,
    "conom": 1362,
    "response": 1363,
    "dio": 1364,
    "network": 1365,
    "termine": 1366,
    "ses": 1367,
    "flu": 1368,
    "termin": 1369,
    "ately": 1370,
    "significant": 1371,
    "igin": 1372,
    "video": 1373,
    "erial": 1374,
    "ik": 1375,
    "Hello": 1376,
    "success": 1377,
    "tic": 1378,
    "cup": 1379,
    "actions": 1380,
    "too": 1381,
    "necess": 1382,
    "refer": 1383,
    "ina": 1384,
    "explain": 1385,
    "Comp": 1386,
    "bon": 1387,
    "focus": 1388,
    "xim": 1389,
    "wal": 1390,
    "check": 1391,
    "pose": 1392,
    "natural": 1393,
    "AT": 1394,
    "hor": 1395,
    "source": 1396,
    "Res": 1397,
    "during": 1398,
    "share": 1399,
    "environment": 1400,
    "knowledge": 1401,
    "left": 1402,
    "ctor": 1403,
    "situ": 1404,
    "else": 1405,
    "ng": 1406,
    "recommend": 1407,
    "night": 1408,
    "amount": 1409,
    "challeng": 1410,
    "minut": 1411,
    "games": 1412,
    "event": 1413,
    "ко": 1414,
    "tit": 1415,
    "US": 1416,
    "sound": 1417,
    "ff": 1418,
    "achie": 1419,
    "designed": 1420,
    "chat": 1421,
    "helps": 1422,
    "law": 1423,
    "gar": 1424,
    "today": 1425,
    "child": 1426,
    "Ap": 1427,
    "lot": 1428,
    "usion": 1429,
    "els": 1430,
    "format": 1431,
    "ene": 1432,
    "ather": 1433,
    "cou": 1434,
    "amples": 1435,
    "future": 1436,
    "ns": 1437,
    "Yes": 1438,
    "ome": 1439,
    "style": 1440,
    "curity": 1441,
    "various": 1442,
    "quality": 1443,
    "profess": 1444,
    "squ": 1445,
    "ood": 1446,
    "appe": 1447,
    "sense": 1448,
    "available": 1449,
    "types": 1450,
    "dem": 1451,
    "sco": 1452,
    "clear": 1453,
    "Str": 1454,
    "origin": 1455,
    "cannot": 1456,
    "idea": 1457,
    "docu": 1458,
    "load": 1459,
    "those": 1460,
    "address": 1461,
    "span": 1462,
    "ength": 1463,
    "working": 1464,
    "approach": 1465,
    "ime": 1466,
    "ques": 1467,
    "Sp": 1468,
    "Overall": 1469,
    "AP": 1470,
    "multiple": 1471,
    "chan": 1472,
    "comes": 1473,
    "econom": 1474,
    "indu": 1475,
    "job": 1476,
    "tro": 1477,
    "ream": 1478,
    "free": 1479,
    "oid": 1480,
    "summary": 1481,
    "going": 1482,
    "another": 1483,
    "With": 1484,
    "RE": 1485,
    "technology": 1486,
    "characters": 1487,
    "anim": 1488,
    "certain": 1489,
    "uro": 1490,
    "fac": 1491,
    "по": 1492,
    "techni": 1493,
    "server": 1494,
    "look": 1495,
    "understanding": 1496,
    "dex": 1497,
    "material": 1498,
    "ready": 1499,
    "country": 1500,
    "match": 1501,
    "ht": 1502,
    "tre": 1503,
    "wom": 1504,
    "become": 1505,
    "resources": 1506,
    "sun": 1507,
    "provides": 1508,
    "pour": 1509,
    "ет": 1510,
    "gn": 1511,
    "market": 1512,
    "determine": 1513,
    "finan": 1514,
    "ord": 1515,
    "whe": 1516,
    "itch": 1517,
    "sorry": 1518,
    "optim": 1519,
    "gover": 1520,
    "computer": 1521,
    "pie": 1522,
    "imm": 1523,
    "John": 1524,
    "true": 1525,
    "dest": 1526,
    "position": 1527,
    "plat": 1528,
    "board": 1529,
    "custom": 1530,
    "speed": 1531,
    "ories": 1532,
    "Sy": 1533,
    "dog": 1534,
    "hope": 1535,
    "powerful": 1536,
    "players": 1537,
    "temper": 1538,
    "itionally": 1539,
    "Sh": 1540,
    "against": 1541,
    "fur": 1542,
    "bar": 1543,
    "ID": 1544,
    "request": 1545,
    "pay": 1546,
    "implement": 1547,
    "abilities": 1548,
    "ran": 1549,
    "card": 1550,
    "users": 1551,
    "expect": 1552,
    "Data": 1553,
    "flow": 1554,
    "beaut": 1555,
    "cir": 1556,
    "ux": 1557,
    "icate": 1558,
    "array": 1559,
    "bur": 1560,
    "quick": 1561,
    "lit": 1562,
    "single": 1563,
    "ives": 1564,
    "Cl": 1565,
    "oney": 1566,
    "sentence": 1567,
    "hol": 1568,
    "tor": 1569,
    "govern": 1570,
    "SE": 1571,
    "AR": 1572,
    "meet": 1573,
    "continu": 1574,
    "neg": 1575,
    "respect": 1576,
    "until": 1577,
    "rit": 1578,
    "Additionally": 1579,
    "init": 1580,
    "arth": 1581,
    "ides": 1582,
    "ür": 1583,
    "applications": 1584,
    "sion": 1585,
    "hold": 1586,
    "trad": 1587,
    "series": 1588,
    "convers": 1589,
    "music": 1590,
    "box": 1591,
    "havi": 1592,
    "mail": 1593,
    "rate": 1594,
    "bra": 1595,
    "mor": 1596,
    "service": 1597,
    "never": 1598,
    "bir": 1599,
    "fit": 1600,
    "Par": 1601,
    "analy": 1602,
    "blue": 1603,
    "break": 1604,
    "cry": 1605,
    "services": 1606,
    "vert": 1607,
    "remain": 1608,
    "offer": 1609,
    "platform": 1610,
    "identify": 1611,
    "ote": 1612,
    "frame": 1613,
    "typically": 1614,
    "Man": 1615,
    "ster": 1616,
    "Ro": 1617,
    "ba": 1618,
    "CT": 1619,
    "programming": 1620,
    "los": 1621,
    "cour": 1622,
    "AN": 1623,
    "Bu": 1624,
    "considered": 1625,
    "length": 1626,
    "ctions": 1627,
    "By": 1628,
    "hard": 1629,
    "detail": 1630,
    "bor": 1631,
    "security": 1632,
    "eine": 1633,
    "Ver": 1634,
    "ica": 1635,
    "egg": 1636,
    "ring": 1637,
    "goals": 1638,
    "anced": 1639,
    "ral": 1640,
    "combin": 1641,
    "engine": 1642,
    "jor": 1643,
    "argu": 1644,
    "exist": 1645,
    "area": 1646,
    "libr": 1647,
    "rece": 1648,
    "benef": 1649,
    "solve": 1650,
    "heart": 1651,
    "aging": 1652,
    "ju": 1653,
    "looking": 1654,
    "von": 1655,
    "options": 1656,
    "minutes": 1657,
    "ped": 1658,
    "square": 1659,
    "Po": 1660,
    "equation": 1661,
    "necessary": 1662,
    "won": 1663,
    "Ser": 1664,
    "cies": 1665,
    "full": 1666,
    "United": 1667,
    "within": 1668,
    "files": 1669,
    "ка": 1670,
    "met": 1671,
    "LLM": 1672,
    "named": 1673,
    "reach": 1674,
    "tax": 1675,
    "days": 1676,
    "uck": 1677,
    "La": 1678,
    "reng": 1679,
    "ión": 1680,
    "thor": 1681,
    "efficient": 1682,
    "iel": 1683,
    "prefer": 1684,
    "intell": 1685,
    "ão": 1686,
    "intellig": 1687,
    "behavi": 1688,
    "yes": 1689,
    "ре": 1690,
    "Me": 1691,
    "не": 1692,
    "ties": 1693,
    "itical": 1694,
    "scal": 1695,
    "jour": 1696,
    "ention": 1697,
    "lay": 1698,
    "related": 1699,
    "istic": 1700,
    "structure": 1701,
    "parame": 1702,
    "elements": 1703,
    "wa": 1704,
    "higher": 1705,
    "oks": 1706,
    "base": 1707,
    "cogn": 1708,
    "za": 1709,
    "lish": 1710,
    "force": 1711,
    "compon": 1712,
    "humans": 1713,
    "family": 1714,
    "enjoy": 1715,
    "terms": 1716,
    "rid": 1717,
    "financial": 1718,
    "predict": 1719,
    "due": 1720,
    "colum": 1721,
    "mes": 1722,
    "ть": 1723,
    "appropri": 1724,
    "Earth": 1725,
    "acc": 1726,
    "va": 1727,
    "index": 1728,
    "ysis": 1729,
    "LE": 1730,
    "Set": 1731,
    "dro": 1732,
    "Once": 1733,
    "exp": 1734,
    "fully": 1735,
    "ban": 1736,
    "points": 1737,
    "bility": 1738,
    "lic": 1739,
    "root": 1740,
    "GP": 1741,
    "results": 1742,
    "apples": 1743,
    "easy": 1744,
    "quant": 1745,
    "ulation": 1746,
    "ST": 1747,
    "gest": 1748,
    "someone": 1749,
    "ones": 1750,
    "illion": 1751,
    "ified": 1752,
    "changes": 1753,
    "dy": 1754,
    "cat": 1755,
    "evalu": 1756,
    "reduce": 1757,
    "provided": 1758,
    "AM": 1759,
    "pack": 1760,
    "Get": 1761,
    "ded": 1762,
    "site": 1763,
    "Amer": 1764,
    "treat": 1765,
    "travel": 1766,
    "streng": 1767,
    "hours": 1768,
    "ender": 1769,
    "lower": 1770,
    "building": 1771,
    "pattern": 1772,
    "Col": 1773,
    "choice": 1774,
    "mechan": 1775,
    "particular": 1776,
    "ny": 1777,
    "hal": 1778,
    "Er": 1779,
    "aim": 1780,
    "ull": 1781,
    "yourself": 1782,
    "events": 1783,
    "management": 1784,
    "sha": 1785,
    "ires": 1786,
    "emplo": 1787,
    "option": 1788,
    "etc": 1789,
    "risk": 1790,
    "Mon": 1791,
    "prompt": 1792,
    "black": 1793,
    "Mar": 1794,
    "trained": 1795,
    "song": 1796,
    "Ne": 1797,
    "believe": 1798,
    "involves": 1799,
    "cks": 1800,
    "location": 1801,
    "ney": 1802,
    "special": 1803,
    "flo": 1804,
    "Expl": 1805,
    "irl": 1806,
    "document": 1807,
    "vant": 1808,
    "gent": 1809,
    "ler": 1810,
    "van": 1811,
    "plac": 1812,
    "tos": 1813,
    "tomer": 1814,
    "avoid": 1815,
    "mental": 1816,
    "eth": 1817,
    "solution": 1818,
    "money": 1819,
    "lin": 1820,
    "ired": 1821,
    "accur": 1822,
    "plot": 1823,
    "late": 1824,
    "round": 1825,
    "stop": 1826,
    "stri": 1827,
    "Af": 1828,
    "cture": 1829,
    "issues": 1830,
    "Therefore": 1831,
    "That": 1832,
    "memory": 1833,
    "fig": 1834,
    "lete": 1835,
    "cription": 1836,
    "ying": 1837,
    "bat": 1838,
    "New": 1839,
    "stay": 1840,
    "fast": 1841,
    "reason": 1842,
    "pas": 1843,
    "examples": 1844,
    "target": 1845,
    "Sch": 1846,
    "deep": 1847,
    "sequence": 1848,
    "exper": 1849,
    "ules": 1850,
    "portun": 1851,
    "Pr": 1852,
    "super": 1853,
    "maintain": 1854,
    "said": 1855,
    "iled": 1856,
    "dle": 1857,
    "achieve": 1858,
    "prob": 1859,
    "protect": 1860,
    "ering": 1861,
    "ilo": 1862,
    "enough": 1863,
    "Ger": 1864,
    "contribut": 1865,
    "ada": 1866,
    "post": 1867,
    "ending": 1868,
    "anything": 1869,
    "ivity": 1870,
    "verage": 1871,
    "purpose": 1872,
    "ping": 1873,
    "hi": 1874,
    "At": 1875,
    "syn": 1876,
    "fall": 1877,
    "Bo": 1878,
    "came": 1879,
    "whether": 1880,
    "joke": 1881,
    "gain": 1882,
    "apan": 1883,
    "itor": 1884,
    "determin": 1885,
    "idence": 1886,
    "saf": 1887,
    "ла": 1888,
    "vious": 1889,
    "sw": 1890,
    "positive": 1891,
    "Ste": 1892,
    "World": 1893,
    "util": 1894,
    "Dis": 1895,
    "opportun": 1896,
    "strength": 1897,
    "lat": 1898,
    "got": 1899,
    "professional": 1900,
    "query": 1901,
    "Make": 1902,
    "behavior": 1903,
    "El": 1904,
    "calculate": 1905,
    "Te": 1906,
    "sat": 1907,
    "cab": 1908,
    "influ": 1909,
    "aset": 1910,
    "appropriate": 1911,
    "taking": 1912,
    "products": 1913,
    "sort": 1914,
    "display": 1915,
    "trying": 1916,
    "original": 1917,
    "ances": 1918,
    "temperature": 1919,
    "algorithm": 1920,
    "ва": 1921,
    "ли": 1922,
    "anger": 1923,
    "exe": 1924,
    "writing": 1925,
    "tools": 1926,
    "ium": 1927,
    "sets": 1928,
    "planet": 1929,
    "loop": 1930,
    "measure": 1931,
    "icht": 1932,
    "iting": 1933,
    "physical": 1934,
    "white": 1935,
    "scient": 1936,
    "growth": 1937,
    "report": 1938,
    "aring": 1939,
    "analysis": 1940,
    "leep": 1941,
    "ends": 1942,
    "final": 1943,
    "Or": 1944,
    "government": 1945,
    "Su": 1946,
    "away": 1947,
    "Ge": 1948,
    "fix": 1949,
    "depending": 1950,
    "Why": 1951,
    "gs": 1952,
    "sou": 1953,
    "increase": 1954,
    "rap": 1955,
    "makes": 1956,
    "situation": 1957,
    "cccc": 1958,
    "States": 1959,
    "additional": 1960,
    "continue": 1961,
    "cord": 1962,
    "wards": 1963,
    "win": 1964,
    "espe": 1965,
    "ification": 1966,
    "big": 1967,
    "aaaaaaaa": 1968,
    "since": 1969,
    "fort": 1970,
    "subject": 1971,
    "dataset": 1972,
    "block": 1973,
    "includes": 1974,
    "creating": 1975,
    "prevent": 1976,
    "datab": 1977,
    "cas": 1978,
    "setting": 1979,
    "element": 1980,
    "phr": 1981,
    "sens": 1982,
    "Bl": 1983,
    "far": 1984,
    "ency": 1985,
    "problems": 1986,
    "happy": 1987,
    "enter": 1988,
    "во": 1989,
    "fru": 1990,
    "version": 1991,
    "select": 1992,
    "choose": 1993,
    "application": 1994,
    "girl": 1995,
    "friends": 1996,
    "cide": 1997,
    "door": 1998,
    "distribut": 1999,
    "mas": 2000,
    "Java": 2001,
    "tiv": 2002,
    "page": 2003,
    "fill": 2004,
    "movi": 2005,
    "idad": 2006,
    "across": 2007,
    "valid": 2008,
    "title": 2009,
    "further": 2010,
    "store": 2011,
    "live": 2012,
    "difference": 2013,
    "kind": 2014,
    "qui": 2015,
    "utions": 2016,
    "oud": 2017,
    "window": 2018,
    "decision": 2019,
    "Who": 2020,
    "universe": 2021,
    "four": 2022,
    "ML": 2023,
    "dark": 2024,
    "distance": 2025,
    "returns": 2026,
    "priv": 2027,
    "mix": 2028,
    "abo": 2029,
    "methods": 2030,
    "done": 2031,
    "tries": 2032,
    "Per": 2033,
    "Japan": 2034,
    "themat": 2035,
    "transform": 2036,
    "individuals": 2037,
    "das": 2038,
    "gress": 2039,
    "roll": 2040,
    "ension": 2041,
    "sources": 2042,
    "month": 2043,
    "pap": 2044,
    "letter": 2045,
    "major": 2046,
    "zer": 2047,
    "II": 2048,
    "eat": 2049,
    "00": 2050,
    "mbol": 2051,
    "relevant": 2052,
    "hot": 2053,
    "ideas": 2054,
    "aries": 2055,
    "online": 2056,
    "arr": 2057,
    "mid": 2058,
    "names": 2059,
    "house": 2060,
    "未央未央未央未央": 2061,
    "tomat": 2062,
    "inet": 2063,
    "week": 2064,
    "techniques": 2065,
    "cise": 2066,
    "Gener": 2067,
    "ante": 2068,
    "map": 2069,
    "customer": 2070,
    "email": 2071,
    "handle": 2072,
    "Ty": 2073,
    "те": 2074,
    "Finally": 2075,
    "pair": 2076,
    "suit": 2077,
    "Sar": 2078,
    "needed": 2079,
    "concer": 2080,
    "ift": 2081,
    "inci": 2082,
    "regular": 2083,
    "cast": 2084,
    "draw": 2085,
    "Then": 2086,
    "error": 2087,
    "ль": 2088,
    "bes": 2089,
    "culture": 2090,
    "las": 2091,
    "Def": 2092,
    "intelligence": 2093,
    "host": 2094,
    "hip": 2095,
    "config": 2096,
    "fight": 2097,
    "compare": 2098,
    "associ": 2099,
    "details": 2100,
    "concept": 2101,
    "quickly": 2102,
    "written": 2103,
    "ré": 2104,
    "mage": 2105,
    "rat": 2106,
    "lines": 2107,
    "Engl": 2108,
    "OR": 2109,
    "seen": 2110,
    "contains": 2111,
    "compet": 2112,
    "ker": 2113,
    "recogn": 2114,
    "ida": 2115,
    "challenges": 2116,
    "equal": 2117,
    "vary": 2118,
    "ja": 2119,
    "та": 2120,
    "seem": 2121,
    "Imp": 2122,
    "explore": 2123,
    "educ": 2124,
    "previous": 2125,
    "fs": 2126,
    "conditions": 2127,
    "für": 2128,
    "legal": 2129,
    "dom": 2130,
    "objects": 2131,
    "ude": 2132,
    "System": 2133,
    "Comm": 2134,
    "uel": 2135,
    "English": 2136,
    "average": 2137,
    "loss": 2138,
    "device": 2139,
    "compan": 2140,
    "coming": 2141,
    "period": 2142,
    "processing": 2143,
    "ute": 2144,
    "created": 2145,
    "communication": 2146,
    "AL": 2147,
    "duct": 2148,
    "iful": 2149,
    "discus": 2150,
    "ican": 2151,
    "hab": 2152,
    "install": 2153,
    "tru": 2154,
    "thin": 2155,
    "chool": 2156,
    "tact": 2157,
    "variable": 2158,
    "ario": 2159,
    "Sarah": 2160,
    "begin": 2161,
    "Out": 2162,
    "dez": 2163,
    "remember": 2164,
    "price": 2165,
    "remo": 2166,
    "String": 2167,
    "ix": 2168,
    "paren": 2169,
    "aur": 2170,
    "items": 2171,
    "pet": 2172,
    "standard": 2173,
    "Val": 2174,
    "Id": 2175,
    "areas": 2176,
    "sed": 2177,
    "Che": 2178,
    "Euro": 2179,
    "dec": 2180,
    "ury": 2181,
    "science": 2182,
    "мо": 2183,
    "izing": 2184,
    "icro": 2185,
    "dete": 2186,
    "affect": 2187,
    "ри": 2188,
    "QL": 2189,
    "dé": 2190,
    "len": 2191,
    "Trans": 2192,
    "symbol": 2193,
    "lection": 2194,
    "era": 2195,
    "mathemat": 2196,
    "fee": 2197,
    "While": 2198,
    "sel": 2199,
    "ны": 2200,
    "да": 2201,
    "vous": 2202,
    "thought": 2203,
    "auf": 2204,
    "chatbot": 2205,
    "tural": 2206,
    "soph": 2207,
    "Don": 2208,
    "War": 2209,
    "conversation": 2210,
    "helpful": 2211,
    "complet": 2212,
    "Ke": 2213,
    "ensive": 2214,
    "Es": 2215,
    "unch": 2216,
    "EN": 2217,
    "above": 2218,
    "First": 2219,
    "Ac": 2220,
    "having": 2221,
    "beautiful": 2222,
    "artic": 2223,
    "feelings": 2224,
    "cia": 2225,
    "effective": 2226,
    "Time": 2227,
    "button": 2228,
    "ras": 2229,
    "nu": 2230,
    "lu": 2231,
    "requirements": 2232,
    "running": 2233,
    "CO": 2234,
    "account": 2235,
    "го": 2236,
    "tional": 2237,
    "wood": 2238,
    "respond": 2239,
    "versity": 2240,
    "moder": 2241,
    "dies": 2242,
    "timat": 2243,
    "ili": 2244,
    "Cal": 2245,
    "community": 2246,
    "Vis": 2247,
    "ister": 2248,
    "ended": 2249,
    "timately": 2250,
    "located": 2251,
    "score": 2252,
    "explor": 2253,
    "aves": 2254,
    "Ph": 2255,
    "stry": 2256,
    "fav": 2257,
    "pan": 2258,
    "glo": 2259,
    "List": 2260,
    "nature": 2261,
    "ially": 2262,
    "mod": 2263,
    "integr": 2264,
    "May": 2265,
    "little": 2266,
    "ale": 2267,
    "coura": 2268,
    "functions": 2269,
    "attention": 2270,
    "aking": 2271,
    "cabinet": 2272,
    "alse": 2273,
    "tree": 2274,
    "reli": 2275,
    "relationships": 2276,
    "fields": 2277,
    "author": 2278,
    "counter": 2279,
    "advant": 2280,
    "RO": 2281,
    "active": 2282,
    "promo": 2283,
    "fre": 2284,
    "starting": 2285,
    "library": 2286,
    "soft": 2287,
    "save": 2288,
    "Fr": 2289,
    "experiences": 2290,
    "cure": 2291,
    "icy": 2292,
    "Ob": 2293,
    "cel": 2294,
    "ky": 2295,
    "buil": 2296,
    "ird": 2297,
    "started": 2298,
    "woman": 2299,
    "sleep": 2300,
    "ES": 2301,
    "sole": 2302,
    "acks": 2303,
    "intro": 2304,
    "industry": 2305,
    "gon": 2306,
    "feed": 2307,
    "CS": 2308,
    "ме": 2309,
    "capital": 2310,
    "evol": 2311,
    "asing": 2312,
    "ación": 2313,
    "adjust": 2314,
    "Pre": 2315,
    "statement": 2316,
    "elt": 2317,
    "stor": 2318,
    "sn": 2319,
    "agra": 2320,
    "basic": 2321,
    "heat": 2322,
    "survi": 2323,
    "aus": 2324,
    "Ul": 2325,
    "accurate": 2326,
    "bring": 2327,
    "tow": 2328,
    "vil": 2329,
    "young": 2330,
    "ront": 2331,
    "highly": 2332,
    "stu": 2333,
    "struction": 2334,
    "poem": 2335,
    "providing": 2336,
    "mode": 2337,
    "past": 2338,
    "histor": 2339,
    "green": 2340,
    "client": 2341,
    "commit": 2342,
    "minim": 2343,
    "JS": 2344,
    "interpre": 2345,
    "ana": 2346,
    "inner": 2347,
    "levels": 2348,
    "Sol": 2349,
    "describe": 2350,
    "AD": 2351,
    "exact": 2352,
    "Sou": 2353,
    "worth": 2354,
    "media": 2355,
    "ula": 2356,
    "ison": 2357,
    "safety": 2358,
    "traditional": 2359,
    "band": 2360,
    "dry": 2361,
    "ml": 2362,
    "és": 2363,
    "nen": 2364,
    "cially": 2365,
    "princi": 2366,
    "economic": 2367,
    "harm": 2368,
    "nal": 2369,
    "ager": 2370,
    "separ": 2371,
    "description": 2372,
    "SQL": 2373,
    "technolog": 2374,
    "safe": 2375,
    "tes": 2376,
    "plo": 2377,
    "metr": 2378,
    "decisions": 2379,
    "course": 2380,
    "negative": 2381,
    "API": 2382,
    "Nor": 2383,
    "Day": 2384,
    "estim": 2385,
    "expected": 2386,
    "clar": 2387,
    "structions": 2388,
    "activities": 2389,
    "requires": 2390,
    "spir": 2391,
    "ato": 2392,
    "society": 2393,
    "Ho": 2394,
    "effects": 2395,
    "chain": 2396,
    "ле": 2397,
    "states": 2398,
    "zy": 2399,
    "benefits": 2400,
    "craft": 2401,
    "за": 2402,
    "buy": 2403,
    "maxim": 2404,
    "operations": 2405,
    "cording": 2406,
    "chen": 2407,
    "normal": 2408,
    "center": 2409,
    "consist": 2410,
    "Ans": 2411,
    "database": 2412,
    "goal": 2413,
    "progress": 2414,
    "practice": 2415,
    "Europe": 2416,
    "Sie": 2417,
    "Bob": 2418,
    "ás": 2419,
    "rich": 2420,
    "scen": 2421,
    "strategy": 2422,
    "favor": 2423,
    "ned": 2424,
    "theory": 2425,
    "complete": 2426,
    "sess": 2427,
    "thoughts": 2428,
    "vor": 2429,
    "Text": 2430,
    "Give": 2431,
    "Window": 2432,
    "AC": 2433,
    "apple": 2434,
    "rather": 2435,
    "ont": 2436,
    "IT": 2437,
    "ging": 2438,
    "depends": 2439,
    "illed": 2440,
    "advanced": 2441,
    "countries": 2442,
    "ert": 2443,
    "living": 2444,
    "gi": 2445,
    "paper": 2446,
    "dial": 2447,
    "images": 2448,
    "frequ": 2449,
    "labor": 2450,
    "ane": 2451,
    "school": 2452,
    "overall": 2453,
    "useful": 2454,
    "least": 2455,
    "Car": 2456,
    "foc": 2457,
    "Now": 2458,
    "Pe": 2459,
    "Explain": 2460,
    "como": 2461,
    "wid": 2462,
    "happen": 2463,
    "lives": 2464,
    "eyes": 2465,
    "column": 2466,
    "ffer": 2467,
    "hr": 2468,
    "де": 2469,
    "warm": 2470,
    "az": 2471,
    "ought": 2472,
    "ination": 2473,
    "brow": 2474,
    "td": 2475,
    "political": 2476,
    "hind": 2477,
    "iff": 2478,
    "offee": 2479,
    "lands": 2480,
    "visit": 2481,
    "Answer": 2482,
    "children": 2483,
    "ko": 2484,
    "phone": 2485,
    "ither": 2486,
    "surface": 2487,
    "remove": 2488,
    "doing": 2489,
    "Dav": 2490,
    "emotions": 2491,
    "ished": 2492,
    "igen": 2493,
    "track": 2494,
    "sv": 2495,
    "tend": 2496,
    "expert": 2497,
    "tour": 2498,
    "ificial": 2499,
    "dim": 2500,
    "ead": 2501,
    "ло": 2502,
    "especially": 2503,
    "getting": 2504,
    "kt": 2505,
    "ffic": 2506,
    "shape": 2507,
    "feeling": 2508,
    "Type": 2509,
    "watch": 2510,
    "ía": 2511,
    "archite": 2512,
    "elle": 2513,
    "books": 2514,
    "students": 2515,
    "Take": 2516,
    "df": 2517,
    "ond": 2518,
    "resh": 2519,
    "Script": 2520,
    "camp": 2521,
    "languages": 2522,
    "associated": 2523,
    "rating": 2524,
    "preferences": 2525,
    "Alice": 2526,
    "ablish": 2527,
    "attle": 2528,
    "cultural": 2529,
    "danger": 2530,
    "stream": 2531,
    "playing": 2532,
    "ni": 2533,
    "materials": 2534,
    "required": 2535,
    "HT": 2536,
    "journey": 2537,
    "production": 2538,
    "chann": 2539,
    "replace": 2540,
    "study": 2541,
    "Play": 2542,
    "uration": 2543,
    "clean": 2544,
    "ción": 2545,
    "sex": 2546,
    "fire": 2547,
    "ico": 2548,
    "iss": 2549,
    "ilosoph": 2550,
    "scre": 2551,
    "ET": 2552,
    "David": 2553,
    "simul": 2554,
    "updat": 2555,
    "matter": 2556,
    "nov": 2557,
    "behind": 2558,
    "After": 2559,
    "All": 2560,
    "dire": 2561,
    "regard": 2562,
    "ples": 2563,
    "sky": 2564,
    "advent": 2565,
    "instead": 2566,
    "medical": 2567,
    "ches": 2568,
    "sample": 2569,
    "along": 2570,
    "apolog": 2571,
    "offers": 2572,
    "mate": 2573,
    "Eng": 2574,
    "Inter": 2575,
    "JSON": 2576,
    "pho": 2577,
    "quantum": 2578,
    "execut": 2579,
    "IS": 2580,
    "strateg": 2581,
    "population": 2582,
    "eggs": 2583,
    "weather": 2584,
    "topic": 2585,
    "erson": 2586,
    "racy": 2587,
    "Pri": 2588,
    "vot": 2589,
    "forward": 2590,
    "rules": 2591,
    "expression": 2592,
    "introdu": 2593,
    "weet": 2594,
    "coffee": 2595,
    "ids": 2596,
    "cape": 2597,
    "appear": 2598,
    "Sal": 2599,
    "sphere": 2600,
    "json": 2601,
    "really": 2602,
    "reasons": 2603,
    "Lear": 2604,
    "resol": 2605,
    "teach": 2606,
    "cket": 2607,
    "trust": 2608,
    "prior": 2609,
    "ware": 2610,
    "components": 2611,
    "Hi": 2612,
    "Die": 2613,
    "audi": 2614,
    "aly": 2615,
    "Each": 2616,
    "push": 2617,
    "extract": 2618,
    "thers": 2619,
    "close": 2620,
    "Lu": 2621,
    "explan": 2622,
    "speak": 2623,
    "phrase": 2624,
    "smo": 2625,
    "Go": 2626,
    "moment": 2627,
    "adap": 2628,
    "Act": 2629,
    "tall": 2630,
    "issue": 2631,
    "ule": 2632,
    "review": 2633,
    "nav": 2634,
    "already": 2635,
    "err": 2636,
    "approxim": 2637,
    "Open": 2638,
    "longer": 2639,
    "developed": 2640,
    "Gu": 2641,
    "risks": 2642,
    "foot": 2643,
    "Model": 2644,
    "exc": 2645,
    "combination": 2646,
    "tive": 2647,
    "smaller": 2648,
    "Tra": 2649,
    "Tw": 2650,
    "customers": 2651,
    "companies": 2652,
    "visual": 2653,
    "cep": 2654,
    "million": 2655,
    "cm": 2656,
    "limited": 2657,
    "ino": 2658,
    "importance": 2659,
    "height": 2660,
    "motiv": 2661,
    "opin": 2662,
    "asy": 2663,
    "oder": 2664,
    "User": 2665,
    "refers": 2666,
    "pain": 2667,
    "website": 2668,
    "Red": 2669,
    "rup": 2670,
    "assistant": 2671,
    "largest": 2672,
    "parts": 2673,
    "ido": 2674,
    "China": 2675,
    "forest": 2676,
    "occur": 2677,
    "skin": 2678,
    "perspect": 2679,
    "bs": 2680,
    "mark": 2681,
    "factor": 2682,
    "philosoph": 2683,
    "once": 2684,
    "comfor": 2685,
    "directory": 2686,
    "film": 2687,
    "Uni": 2688,
    "mut": 2689,
    "nut": 2690,
    "cient": 2691,
    "lich": 2692,
    "built": 2693,
    "stra": 2694,
    "stre": 2695,
    "iction": 2696,
    "exer": 2697,
    "walk": 2698,
    "mission": 2699,
    "leading": 2700,
    "sho": 2701,
    "cross": 2702,
    "aware": 2703,
    "ints": 2704,
    "ived": 2705,
    "AB": 2706,
    "Li": 2707,
    "dialog": 2708,
    "chem": 2709,
    "devices": 2710,
    "scale": 2711,
    "near": 2712,
    "ingre": 2713,
    "secure": 2714,
    "dit": 2715,
    "Cli": 2716,
    "Pol": 2717,
    "ader": 2718,
    "spl": 2719,
    "xy": 2720,
    "towards": 2721,
    "hat": 2722,
    "Lin": 2723,
    "IP": 2724,
    "Define": 2725,
    "ellow": 2726,
    "front": 2727,
    "asking": 2728,
    "larger": 2729,
    "gun": 2730,
    "follows": 2731,
    "corpor": 2732,
    "htt": 2733,
    "solutions": 2734,
    "parameters": 2735,
    "inside": 2736,
    "cook": 2737,
    "pued": 2738,
    "secre": 2739,
    "ION": 2740,
    "currently": 2741,
    "dos": 2742,
    "famous": 2743,
    "inf": 2744,
    "rows": 2745,
    "national": 2746,
    "ume": 2747,
    "investment": 2748,
    "sell": 2749,
    "American": 2750,
    "comfortable": 2751,
    "healthy": 2752,
    "claim": 2753,
    "stain": 2754,
    "vest": 2755,
    "bb": 2756,
    "ال": 2757,
    "condition": 2758,
    "animals": 2759,
    "nom": 2760,
    "confl": 2761,
    "plus": 2762,
    "tren": 2763,
    "cases": 2764,
    "collect": 2765,
    "Net": 2766,
    "modif": 2767,
    "ils": 2768,
    "Tell": 2769,
    "ти": 2770,
    "enced": 2771,
    "CP": 2772,
    "widely": 2773,
    "filter": 2774,
    "Note": 2775,
    "ingredi": 2776,
    "movie": 2777,
    "zen": 2778,
    "join": 2779,
    "izations": 2780,
    "Ma": 2781,
    "cking": 2782,
    "label": 2783,
    "geno": 2784,
    "feature": 2785,
    "saw": 2786,
    "modern": 2787,
    "unit": 2788,
    "employe": 2789,
    "define": 2790,
    "addition": 2791,
    "viol": 2792,
    "regul": 2793,
    "subst": 2794,
    "alle": 2795,
    "iency": 2796,
    "tips": 2797,
    "rou": 2798,
    "dia": 2799,
    "fish": 2800,
    "liter": 2801,
    "mass": 2802,
    "argument": 2803,
    "constant": 2804,
    "sl": 2805,
    "marke": 2806,
    "algorithms": 2807,
    "enge": 2808,
    "Fe": 2809,
    "apologize": 2810,
    "bow": 2811,
    "gas": 2812,
    "eder": 2813,
    "send": 2814,
    "void": 2815,
    "ged": 2816,
    "five": 2817,
    "pow": 2818,
    "var": 2819,
    "State": 2820,
    "colors": 2821,
    "Test": 2822,
    "generated": 2823,
    "prime": 2824,
    "ito": 2825,
    "male": 2826,
    "establish": 2827,
    "ife": 2828,
    "sequences": 2829,
    "deta": 2830,
    "variables": 2831,
    "became": 2832,
    "presents": 2833,
    "Date": 2834,
    "Har": 2835,
    "faster": 2836,
    "ights": 2837,
    "mber": 2838,
    "sin": 2839,
    "itself": 2840,
    "lying": 2841,
    "talk": 2842,
    "relat": 2843,
    "patterns": 2844,
    "third": 2845,
    "vit": 2846,
    "deb": 2847,
    "ming": 2848,
    "ente": 2849,
    "recent": 2850,
    "Cons": 2851,
    "Rep": 2852,
    "properties": 2853,
    "serve": 2854,
    "ouble": 2855,
    "chick": 2856,
    "reflect": 2857,
    "acy": 2858,
    "From": 2859,
    "electric": 2860,
    "OS": 2861,
    "probability": 2862,
    "artificial": 2863,
    "indic": 2864,
    "aving": 2865,
    "connection": 2866,
    "digital": 2867,
    "ки": 2868,
    "Bre": 2869,
    "об": 2870,
    "death": 2871,
    "aspect": 2872,
    "urch": 2873,
    "nel": 2874,
    "hon": 2875,
    "pun": 2876,
    "cool": 2877,
    "IM": 2878,
    "ussi": 2879,
    "ando": 2880,
    "played": 2881,
    "voc": 2882,
    "rix": 2883,
    "olf": 2884,
    "Start": 2885,
    "emer": 2886,
    "easier": 2887,
    "either": 2888,
    "kann": 2889,
    "property": 2890,
    "Was": 2891,
    "moon": 2892,
    "interesting": 2893,
    "attack": 2894,
    "pieces": 2895,
    "meters": 2896,
    "Gra": 2897,
    "differences": 2898,
    "Min": 2899,
    "everyone": 2900,
    "instructions": 2901,
    "initial": 2902,
    "detect": 2903,
    "curacy": 2904,
    "demand": 2905,
    "formula": 2906,
    "istics": 2907,
    "lie": 2908,
    "anges": 2909,
    "igate": 2910,
    "Ultimately": 2911,
    "groups": 2912,
    "core": 2913,
    "interested": 2914,
    "listen": 2915,
    "evidence": 2916,
    "ве": 2917,
    "genocide": 2918,
    "mente": 2919,
    "cells": 2920,
    "ção": 2921,
    "Fl": 2922,
    "global": 2923,
    "King": 2924,
    "mention": 2925,
    "Are": 2926,
    "entially": 2927,
    "blood": 2928,
    "fla": 2929,
    "sisters": 2930,
    "concl": 2931,
    "Reg": 2932,
    "Serv": 2933,
    "detailed": 2934,
    "upon": 2935,
    "background": 2936,
    "ots": 2937,
    "altern": 2938,
    "master": 2939,
    "opportunities": 2940,
    "damage": 2941,
    "ugh": 2942,
    "audio": 2943,
    "hu": 2944,
    "fair": 2945,
    "actual": 2946,
    "explo": 2947,
    "flex": 2948,
    "generally": 2949,
    "console": 2950,
    "Step": 2951,
    "filled": 2952,
    "letters": 2953,
    "below": 2954,
    "ners": 2955,
    "atmo": 2956,
    "trip": 2957,
    "private": 2958,
    "pal": 2959,
    "update": 2960,
    "bound": 2961,
    "itary": 2962,
    "password": 2963,
    "challenging": 2964,
    "adding": 2965,
    "ethical": 2966,
    "ade": 2967,
    "involved": 2968,
    "threat": 2969,
    "Fo": 2970,
    "consul": 2971,
    "status": 2972,
    "ungen": 2973,
    "ls": 2974,
    "sides": 2975,
    "entre": 2976,
    "maz": 2977,
    "renew": 2978,
    "slow": 2979,
    "perfect": 2980,
    "screen": 2981,
    "transport": 2982,
    "ön": 2983,
    "sus": 2984,
    "gal": 2985,
    "region": 2986,
    "connected": 2987,
    "Person": 2988,
    "ki": 2989,
    "Her": 2990,
    "half": 2991,
    "izes": 2992,
    "vision": 2993,
    "selves": 2994,
    "ently": 2995,
    "sil": 2996,
    "ся": 2997,
    "Emp": 2998,
    "assistance": 2999,
    "produce": 3000,
    "ators": 3001,
    "agree": 3002,
    "women": 3003,
    "essential": 3004,
    "pac": 3005,
    "max": 3006,
    "restaur": 3007,
    "tens": 3008,
    "Windows": 3009,
    "UR": 3010,
    "successful": 3011,
    "student": 3012,
    "än": 3013,
    "atom": 3014,
    "cum": 3015,
    "numer": 3016,
    "rench": 3017,
    "greater": 3018,
    "satis": 3019,
    "mist": 3020,
    "UN": 3021,
    "accuracy": 3022,
    "strugg": 3023,
    "JavaScript": 3024,
    "layer": 3025,
    "feedback": 3026,
    "attract": 3027,
    "Which": 3028,
    "Num": 3029,
    "Another": 3030,
    "reci": 3031,
    "sustain": 3032,
    "qual": 3033,
    "France": 3034,
    "ité": 3035,
    "Next": 3036,
    "courage": 3037,
    "Develop": 3038,
    "usually": 3039,
    "FF": 3040,
    "Sw": 3041,
    "healthcare": 3042,
    "transl": 3043,
    "architecture": 3044,
    "consu": 3045,
    "thinking": 3046,
    "everything": 3047,
    "technologies": 3048,
    "figure": 3049,
    "yo": 3050,
    "ration": 3051,
    "useum": 3052,
    "responsible": 3053,
    "happ": 3054,
    "Cor": 3055,
    "cam": 3056,
    "interact": 3057,
    "early": 3058,
    "width": 3059,
    "enn": 3060,
    "communicate": 3061,
    "beliefs": 3062,
    "Both": 3063,
    "easily": 3064,
    "ache": 3065,
    "Spe": 3066,
    "Med": 3067,
    "bul": 3068,
    "deli": 3069,
    "до": 3070,
    "piece": 3071,
    "csv": 3072,
    "directly": 3073,
    "domain": 3074,
    "std": 3075,
    "dass": 3076,
    "hic": 3077,
    "crypt": 3078,
    "star": 3079,
    "president": 3080,
    "dynam": 3081,
    "patient": 3082,
    "ми": 3083,
    "че": 3084,
    "Russi": 3085,
    "ech": 3086,
    "manip": 3087,
    "shop": 3088,
    "education": 3089,
    "js": 3090,
    "represents": 3091,
    "innov": 3092,
    "ological": 3093,
    "dress": 3094,
    "Us": 3095,
    "Sub": 3096,
    "interests": 3097,
    "bad": 3098,
    "CE": 3099,
    "Code": 3100,
    "cand": 3101,
    "ley": 3102,
    "entire": 3103,
    "taken": 3104,
    "ka": 3105,
    "cro": 3106,
    "brand": 3107,
    "knew": 3108,
    "sind": 3109,
    "His": 3110,
    "Am": 3111,
    "RS": 3112,
    "ided": 3113,
    "pand": 3114,
    "pes": 3115,
    "plant": 3116,
    "ру": 3117,
    "ма": 3118,
    "favorite": 3119,
    "rout": 3120,
    "alone": 3121,
    "Check": 3122,
    "TV": 3123,
    "gets": 3124,
    "grand": 3125,
    "quer": 3126,
    "possi": 3127,
    "stock": 3128,
    "spread": 3129,
    "Not": 3130,
    "involve": 3131,
    "leave": 3132,
    "income": 3133,
    "central": 3134,
    "actually": 3135,
    "DE": 3136,
    "among": 3137,
    "align": 3138,
    "plu": 3139,
    "brothers": 3140,
    "Fra": 3141,
    "ura": 3142,
    "cru": 3143,
    "fruit": 3144,
    "Hol": 3145,
    "32": 3146,
    "costs": 3147,
    "sugar": 3148,
    "sched": 3149,
    "hes": 3150,
    "contact": 3151,
    "mary": 3152,
    "apply": 3153,
    "operation": 3154,
    "urs": 3155,
    "weak": 3156,
    "encies": 3157,
    "dangerous": 3158,
    "surround": 3159,
    "sounds": 3160,
    "hid": 3161,
    "shows": 3162,
    "members": 3163,
    "ya": 3164,
    "linear": 3165,
    "defined": 3166,
    "signal": 3167,
    "dule": 3168,
    "crit": 3169,
    "spell": 3170,
    "node": 3171,
    "ues": 3172,
    "Sun": 3173,
    "activity": 3174,
    "ams": 3175,
    "ali": 3176,
    "про": 3177,
    "sentences": 3178,
    "focused": 3179,
    "doesn": 3180,
    "organization": 3181,
    "ви": 3182,
    "extra": 3183,
    "efficiency": 3184,
    "omb": 3185,
    "accept": 3186,
    "tual": 3187,
    "pite": 3188,
    "false": 3189,
    "module": 3190,
    "neural": 3191,
    "engaging": 3192,
    "maximum": 3193,
    "contr": 3194,
    "ufact": 3195,
    "interface": 3196,
    "lost": 3197,
    "cate": 3198,
    "wers": 3199,
    "ease": 3200,
    "Sum": 3201,
    "God": 3202,
    "discover": 3203,
    "Agent": 3204,
    "tou": 3205,
    "party": 3206,
    "laws": 3207,
    "independ": 3208,
    "pound": 3209,
    "sq": 3210,
    "preci": 3211,
    "wise": 3212,
    "Cont": 3213,
    "military": 3214,
    "Quest": 3215,
    "town": 3216,
    "direction": 3217,
    "added": 3218,
    "approximately": 3219,
    "yal": 3220,
    "heav": 3221,
    "vill": 3222,
    "responses": 3223,
    "weap": 3224,
    "brother": 3225,
    "aux": 3226,
    "wall": 3227,
    "potentially": 3228,
    "sich": 3229,
    "capable": 3230,
    "toms": 3231,
    "asked": 3232,
    "giving": 3233,
    "icious": 3234,
    "Pres": 3235,
    "Tok": 3236,
    "itter": 3237,
    "edi": 3238,
    "balance": 3239,
    "Of": 3240,
    "didn": 3241,
    "challenge": 3242,
    "pick": 3243,
    "ubl": 3244,
    "wrong": 3245,
    "isms": 3246,
    "analyze": 3247,
    "Linux": 3248,
    "South": 3249,
    "Remember": 3250,
    "renewable": 3251,
    "kill": 3252,
    "topics": 3253,
    "feet": 3254,
    "sche": 3255,
    "offic": 3256,
    "ля": 3257,
    "OC": 3258,
    "ano": 3259,
    "token": 3260,
    "lock": 3261,
    "wir": 3262,
    "creative": 3263,
    "glass": 3264,
    "yet": 3265,
    "projects": 3266,
    "onom": 3267,
    "prise": 3268,
    "particularly": 3269,
    "link": 3270,
    "technical": 3271,
    "Bra": 3272,
    "attribut": 3273,
    "ga": 3274,
    "hello": 3275,
    "Inst": 3276,
    "cin": 3277,
    "photo": 3278,
    "outside": 3279,
    "Thank": 3280,
    "np": 3281,
    "ason": 3282,
    "lon": 3283,
    "whole": 3284,
    "gramm": 3285,
    "Since": 3286,
    "ena": 3287,
    "scene": 3288,
    "solar": 3289,
    "mir": 3290,
    "tical": 3291,
    "prepare": 3292,
    "poses": 3293,
    "supply": 3294,
    "recommended": 3295,
    "math": 3296,
    "distribution": 3297,
    "testing": 3298,
    "vehic": 3299,
    "repe": 3300,
    "demon": 3301,
    "hair": 3302,
    "pressure": 3303,
    "lack": 3304,
    "errors": 3305,
    "particip": 3306,
    "arg": 3307,
    "iven": 3308,
    "born": 3309,
    "rock": 3310,
    "commonly": 3311,
    "rela": 3312,
    "effectively": 3313,
    "mathematical": 3314,
    "answers": 3315,
    "radi": 3316,
    "uma": 3317,
    "earch": 3318,
    "rais": 3319,
    "cha": 3320,
    "simply": 3321,
    "explanation": 3322,
    "engage": 3323,
    "treatment": 3324,
    "keys": 3325,
    "aaaaaaaaaaaaaaaa": 3326,
    "assu": 3327,
    "evaluate": 3328,
    "veget": 3329,
    "lap": 3330,
    "ountain": 3331,
    "reme": 3332,
    "Visit": 3333,
    "goat": 3334,
    "felt": 3335,
    "ago": 3336,
    "oil": 3337,
    "bri": 3338,
    "symp": 3339,
    "ries": 3340,
    "reh": 3341,
    "ww": 3342,
    "uary": 3343,
    "peace": 3344,
    "brea": 3345,
    "allowing": 3346,
    "drive": 3347,
    "concep": 3348,
    "section": 3349,
    "road": 3350,
    "paint": 3351,
    "caused": 3352,
    "sen": 3353,
    "Did": 3354,
    "inese": 3355,
    "concerns": 3356,
    "Max": 3357,
    "dans": 3358,
    "lim": 3359,
    "cccccccc": 3360,
    "transfer": 3361,
    "latest": 3362,
    "html": 3363,
    "alia": 3364,
    "static": 3365,
    "species": 3366,
    "ades": 3367,
    "channel": 3368,
    "suggestions": 3369,
    "oh": 3370,
    "drop": 3371,
    "purch": 3372,
    "stal": 3373,
    "tun": 3374,
    "processes": 3375,
    "Ident": 3376,
    "ception": 3377,
    "kg": 3378,
    "Consider": 3379,
    "EL": 3380,
    "Germany": 3381,
    "began": 3382,
    "gives": 3383,
    "integer": 3384,
    "én": 3385,
    "boy": 3386,
    "manufact": 3387,
    "fresh": 3388,
    "properly": 3389,
    "consequences": 3390,
    "cher": 3391,
    "со": 3392,
    "desired": 3393,
    "enem": 3394,
    "robot": 3395,
    "equip": 3396,
    "father": 3397,
    "batter": 3398,
    "determined": 3399,
    "hit": 3400,
    "posed": 3401,
    "Fun": 3402,
    "emphas": 3403,
    "LLMs": 3404,
    "scientific": 3405,
    "moving": 3406,
    "later": 3407,
    "assign": 3408,
    "psy": 3409,
    "gam": 3410,
    "chicken": 3411,
    "fine": 3412,
    "economy": 3413,
    "True": 3414,
    "ior": 3415,
    "novel": 3416,
    "agraph": 3417,
    "monitor": 3418,
    "ATE": 3419,
    "automat": 3420,
    "forms": 3421,
    "friendly": 3422,
    "framework": 3423,
    "park": 3424,
    "icks": 3425,
    "bank": 3426,
    "Where": 3427,
    "interpret": 3428,
    "cker": 3429,
    "Plan": 3430,
    "Ef": 3431,
    "audience": 3432,
    "dimens": 3433,
    "ibility": 3434,
    "becomes": 3435,
    "ique": 3436,
    "battle": 3437,
    "networks": 3438,
    "volution": 3439,
    "wel": 3440,
    "wind": 3441,
    "starts": 3442,
    "suitable": 3443,
    "mos": 3444,
    "未央未央未央未央未央未央未央未央": 3445,
    "French": 3446,
    "parameter": 3447,
    "ield": 3448,
    "goes": 3449,
    "dru": 3450,
    "advice": 3451,
    "11": 3452,
    "https": 3453,
    "urn": 3454,
    "bud": 3455,
    "ij": 3456,
    "climate": 3457,
    "deal": 3458,
    "atmosphere": 3459,
    "Value": 3460,
    "infl": 3461,
    "angle": 3462,
    "technique": 3463,
    "century": 3464,
    "thesis": 3465,
    "capture": 3466,
    "sport": 3467,
    "inj": 3468,
    "split": 3469,
    "sie": 3470,
    "Dark": 3471,
    "resist": 3472,
    "component": 3473,
    "uclear": 3474,
    "izz": 3475,
    "akes": 3476,
    "ée": 3477,
    "animal": 3478,
    "Power": 3479,
    "virtual": 3480,
    "physics": 3481,
    "increasing": 3482,
    "nothing": 3483,
    "Char": 3484,
    "river": 3485,
    "reading": 3486,
    "Star": 3487,
    "placed": 3488,
    "expand": 3489,
    "leaves": 3490,
    "amb": 3491,
    "forma": 3492,
    "antic": 3493,
    "practices": 3494,
    "eu": 3495,
    "crimin": 3496,
    "OT": 3497,
    "rig": 3498,
    "weights": 3499,
    "Could": 3500,
    "DA": 3501,
    "Ok": 3502,
    "odes": 3503,
    "jud": 3504,
    "nes": 3505,
    "sales": 3506,
    "Mus": 3507,
    "themes": 3508,
    "stable": 3509,
    "Austr": 3510,
    "Build": 3511,
    "acci": 3512,
    "relax": 3513,
    "sea": 3514,
    "civil": 3515,
    "Output": 3516,
    "speech": 3517,
    "Ret": 3518,
    "engineering": 3519,
    "torch": 3520,
    "aria": 3521,
    "cheese": 3522,
    "divis": 3523,
    "wie": 3524,
    "от": 3525,
    "poon": 3526,
    "atic": 3527,
    "six": 3528,
    "atory": 3529,
    "deplo": 3530,
    "Just": 3531,
    "generation": 3532,
    "ici": 3533,
    "astic": 3534,
    "middle": 3535,
    "seek": 3536,
    "according": 3537,
    "earth": 3538,
    "lib": 3539,
    "irm": 3540,
    "sand": 3541,
    "ault": 3542,
    "via": 3543,
    "developing": 3544,
    "Hum": 3545,
    "autom": 3546,
    "discuss": 3547,
    "ordin": 3548,
    "SS": 3549,
    "AA": 3550,
    "views": 3551,
    "High": 3552,
    "Input": 3553,
    "vector": 3554,
    "attemp": 3555,
    "receive": 3556,
    "reality": 3557,
    "served": 3558,
    "ony": 3559,
    "race": 3560,
    "Mach": 3561,
    "consci": 3562,
    "package": 3563,
    "German": 3564,
    "volume": 3565,
    "Micro": 3566,
    "Super": 3567,
    "beauty": 3568,
    "compared": 3569,
    "ensity": 3570,
    "bag": 3571,
    "reverse": 3572,
    "concepts": 3573,
    "trade": 3574,
    "icon": 3575,
    "plt": 3576,
    "wanted": 3577,
    "auto": 3578,
    "birth": 3579,
    "bonacci": 3580,
    "ost": 3581,
    "humor": 3582,
    "org": 3583,
    "record": 3584,
    "itation": 3585,
    "ference": 3586,
    "Effect": 3587,
    "Je": 3588,
    "businesses": 3589,
    "throughout": 3590,
    "Chinese": 3591,
    "identity": 3592,
    "iling": 3593,
    "dream": 3594,
    "Ber": 3595,
    "formation": 3596,
    "fiction": 3597,
    "paragraph": 3598,
    "strategies": 3599,
    "runs": 3600,
    "copy": 3601,
    "beach": 3602,
    "Fi": 3603,
    "gender": 3604,
    "Dra": 3605,
    "stress": 3606,
    "collabor": 3607,
    "matrix": 3608,
    "funda": 3609,
    "UT": 3610,
    "tel": 3611,
    "gers": 3612,
    "Sim": 3613,
    "places": 3614,
    "willing": 3615,
    "bert": 3616,
    "arri": 3617,
    "aged": 3618,
    "wear": 3619,
    "operating": 3620,
    "spr": 3621,
    "shap": 3622,
    "gment": 3623,
    "ried": 3624,
    "Japanese": 3625,
    "prop": 3626,
    "themselves": 3627,
    "File": 3628,
    "PC": 3629,
    "ait": 3630,
    "chair": 3631,
    "inct": 3632,
    "principles": 3633,
    "compos": 3634,
    "soon": 3635,
    "Read": 3636,
    "gram": 3637,
    "nit": 3638,
    "empty": 3639,
    "valuable": 3640,
    "advantage": 3641,
    "rhy": 3642,
    "Jul": 3643,
    "Based": 3644,
    "bt": 3645,
    "posit": 3646,
    "European": 3647,
    "ression": 3648,
    "ague": 3649,
    "Hope": 3650,
    "took": 3651,
    "HTML": 3652,
    "xi": 3653,
    "industri": 3654,
    "aces": 3655,
    "existing": 3656,
    "complexity": 3657,
    "career": 3658,
    "render": 3659,
    "recur": 3660,
    "standing": 3661,
    "orus": 3662,
    "computing": 3663,
    "Pa": 3664,
    "container": 3665,
    "developers": 3666,
    "ership": 3667,
    "puzz": 3668,
    "Question": 3669,
    "emotional": 3670,
    "compreh": 3671,
    "Class": 3672,
    "arguments": 3673,
    "specified": 3674,
    "Brit": 3675,
    "tok": 3676,
    "marketing": 3677,
    "ди": 3678,
    "atives": 3679,
    "opportunity": 3680,
    "highest": 3681,
    "measures": 3682,
    "dead": 3683,
    "responsi": 3684,
    "hypo": 3685,
    "lies": 3686,
    "Rom": 3687,
    "rist": 3688,
    "hood": 3689,
    "rot": 3690,
    "internet": 3691,
    "más": 3692,
    "cold": 3693,
    "Other": 3694,
    "assess": 3695,
    "Art": 3696,
    "ternal": 3697,
    "Great": 3698,
    "pha": 3699,
    "rise": 3700,
    "een": 3701,
    "ulty": 3702,
    "mel": 3703,
    "convert": 3704,
    "izer": 3705,
    "Tom": 3706,
    "GPT": 3707,
    "werden": 3708,
    "kön": 3709,
    "swi": 3710,
    "mother": 3711,
    "conver": 3712,
    "вы": 3713,
    "neigh": 3714,
    "Try": 3715,
    "diet": 3716,
    "cribe": 3717,
    "Mag": 3718,
    "scenario": 3719,
    "hear": 3720,
    "extreme": 3721,
    "capac": 3722,
    "magnet": 3723,
    "Cho": 3724,
    "opinions": 3725,
    "contribute": 3726,
    "sem": 3727,
    "Keep": 3728,
    "comb": 3729,
    "Good": 3730,
    "contract": 3731,
    "iles": 3732,
    "capabilities": 3733,
    "rule": 3734,
    "UK": 3735,
    "cean": 3736,
    "influence": 3737,
    "vity": 3738,
    "vul": 3739,
    "trees": 3740,
    "ford": 3741,
    "micro": 3742,
    "ceed": 3743,
    "anyone": 3744,
    "solving": 3745,
    "programs": 3746,
    "agent": 3747,
    "té": 3748,
    "zed": 3749,
    "catch": 3750,
    "UI": 3751,
    "anti": 3752,
    "gging": 3753,
    "anch": 3754,
    "cos": 3755,
    "guid": 3756,
    "news": 3757,
    "Jack": 3758,
    "columns": 3759,
    "weigh": 3760,
    "particles": 3761,
    "situations": 3762,
    "consult": 3763,
    "dol": 3764,
    "fuel": 3765,
    "MA": 3766,
    "ita": 3767,
    "personality": 3768,
    "relig": 3769,
    "videos": 3770,
    "oppon": 3771,
    "graphy": 3772,
    "spirit": 3773,
    "Ab": 3774,
    "stack": 3775,
    "conflict": 3776,
    "Learning": 3777,
    "cision": 3778,
    "ander": 3779,
    "fulfill": 3780,
    "Ter": 3781,
    "organizations": 3782,
    "touch": 3783,
    "rics": 3784,
    "het": 3785,
    "си": 3786,
    "chance": 3787,
    "promote": 3788,
    "dot": 3789,
    "conds": 3790,
    "seems": 3791,
    "polic": 3792,
    "article": 3793,
    "kets": 3794,
    "click": 3795,
    "appreci": 3796,
    "conduct": 3797,
    "symptoms": 3798,
    "street": 3799,
    "gree": 3800,
    "hidden": 3801,
    "arian": 3802,
    "logic": 3803,
    "retri": 3804,
    "ento": 3805,
    "urt": 3806,
    "carefully": 3807,
    "psych": 3808,
    "Object": 3809,
    "released": 3810,
    "employees": 3811,
    "zero": 3812,
    "employ": 3813,
    "iliar": 3814,
    "miss": 3815,
    "nuclear": 3816,
    "Cap": 3817,
    "edge": 3818,
    "Calcul": 3819,
    "ät": 3820,
    "appears": 3821,
    "wee": 3822,
    "finding": 3823,
    "resulting": 3824,
    "polit": 3825,
    "wait": 3826,
    "prompts": 3827,
    "adventure": 3828,
    "oranges": 3829,
    "phen": 3830,
    "ifier": 3831,
    "embed": 3832,
    "Web": 3833,
    "configuration": 3834,
    "Lang": 3835,
    "historical": 3836,
    "perspective": 3837,
    "cn": 3838,
    "keit": 3839,
    "yellow": 3840,
    "insp": 3841,
    "sexual": 3842,
    "LECT": 3843,
    "Il": 3844,
    "City": 3845,
    "hen": 3846,
    "diff": 3847,
    "former": 3848,
    "bits": 3849,
    "ulate": 3850,
    "Up": 3851,
    "Op": 3852,
    "policy": 3853,
    "allowed": 3854,
    "Tu": 3855,
    "spect": 3856,
    "reference": 3857,
    "Bar": 3858,
    "ní": 3859,
    "jump": 3860,
    "destro": 3861,
    "AG": 3862,
    "conclusion": 3863,
    "suggests": 3864,
    "Part": 3865,
    "floor": 3866,
    "causing": 3867,
    "rights": 3868,
    "coding": 3869,
    "iden": 3870,
    "hay": 3871,
    "improving": 3872,
    "cities": 3873,
    "conscious": 3874,
    "taste": 3875,
    "dir": 3876,
    "creat": 3877,
    "SELECT": 3878,
    "bright": 3879,
    "ideal": 3880,
    "Vi": 3881,
    "Port": 3882,
    "secret": 3883,
    "sites": 3884,
    "brain": 3885,
    "iment": 3886,
    "izza": 3887,
    "structures": 3888,
    "mechanics": 3889,
    "resource": 3890,
    "Gre": 3891,
    "billion": 3892,
    "fant": 3893,
    "Sm": 3894,
    "tokens": 3895,
    "rei": 3896,
    "diverse": 3897,
    "km": 3898,
    "sig": 3899,
    "depth": 3900,
    "counts": 3901,
    "Uk": 3902,
    "Techn": 3903,
    "covery": 3904,
    "tele": 3905,
    "sweet": 3906,
    "chemical": 3907,
    "VP": 3908,
    "ione": 3909,
    "vast": 3910,
    "encrypt": 3911,
    "Provide": 3912,
    "ais": 3913,
    "smart": 3914,
    "Sof": 3915,
    "fly": 3916,
    "National": 3917,
    "critical": 3918,
    "creates": 3919,
    "ival": 3920,
    "mais": 3921,
    "layers": 3922,
    "deploy": 3923,
    "stead": 3924,
    "chuck": 3925,
    "voice": 3926,
    "Many": 3927,
    "Hand": 3928,
    "vulner": 3929,
    "movement": 3930,
    "се": 3931,
    "бы": 3932,
    "shar": 3933,
    "Pal": 3934,
    "increased": 3935,
    "presence": 3936,
    "illi": 3937,
    "shall": 3938,
    "HE": 3939,
    "stored": 3940,
    "demo": 3941,
    "inten": 3942,
    "guide": 3943,
    "decre": 3944,
    "reven": 3945,
    "libraries": 3946,
    "eventually": 3947,
    "Despite": 3948,
    "PE": 3949,
    "bloc": 3950,
    "Error": 3951,
    "faces": 3952,
    "Analy": 3953,
    "months": 3954,
    "Ve": 3955,
    "stars": 3956,
    "cloud": 3957,
    "double": 3958,
    "meeting": 3959,
    "fail": 3960,
    "season": 3961,
    "daily": 3962,
    "nis": 3963,
    "charge": 3964,
    "rastru": 3965,
    "classes": 3966,
    "ingredients": 3967,
    "clust": 3968,
    "bottle": 3969,
    "protein": 3970,
    "ining": 3971,
    "predictions": 3972,
    "adapt": 3973,
    "University": 3974,
    "gold": 3975,
    "policies": 3976,
    "ados": 3977,
    "intended": 3978,
    "fü": 3979,
    "switch": 3980,
    "vey": 3981,
    "iones": 3982,
    "birds": 3983,
    "shared": 3984,
    "wis": 3985,
    "settings": 3986,
    "sav": 3987,
    "representation": 3988,
    "lip": 3989,
    "Met": 3990,
    "went": 3991,
    "dee": 3992,
    "reads": 3993,
    "ku": 3994,
    "internal": 3995,
    "fan": 3996,
    "esta": 3997,
    "morning": 3998,
    "tag": 3999,
    "Sup": 4000,
    "horror": 4001,
    "hash": 4002,
    "EU": 4003,
    "edom": 4004,
    "Our": 4005,
    "wonder": 4006,
    "stories": 4007,
    "vas": 4008,
    "Di": 4009,
    "advantages": 4010,
    "tage": 4011,
    "är": 4012,
    "ility": 4013,
    "effort": 4014,
    "ige": 4015,
    "default": 4016,
    "nicht": 4017,
    "jet": 4018,
    "dar": 4019,
    "gend": 4020,
    "wealth": 4021,
    "ously": 4022,
    "Com": 4023,
    "guidance": 4024,
    "shot": 4025,
    "experiment": 4026,
    "bab": 4027,
    "spot": 4028,
    "eve": 4029,
    "classic": 4030,
    "credit": 4031,
    "bile": 4032,
    "gro": 4033,
    "hun": 4034,
    "mountain": 4035,
    "wolf": 4036,
    "osen": 4037,
    "insights": 4038,
    "lived": 4039,
    "commer": 4040,
    "guess": 4041,
    "reasoning": 4042,
    "San": 4043,
    "platforms": 4044,
    "DO": 4045,
    "storage": 4046,
    "says": 4047,
    "documents": 4048,
    "remaining": 4049,
    "vs": 4050,
    "ère": 4051,
    "exploring": 4052,
    "continued": 4053,
    "tures": 4054,
    "confident": 4055,
    "flavor": 4056,
    "computers": 4057,
    "evolution": 4058,
    "beat": 4059,
    "float": 4060,
    "ры": 4061,
    "reducing": 4062,
    "Chorus": 4063,
    "você": 4064,
    "Using": 4065,
    "truth": 4066,
    "ancient": 4067,
    "gel": 4068,
    "rust": 4069,
    "Australia": 4070,
    "rastructure": 4071,
    "Sky": 4072,
    "ably": 4073,
    "implementation": 4074,
    "Service": 4075,
    "North": 4076,
    "milk": 4077,
    "consistent": 4078,
    "eye": 4079,
    "iner": 4080,
    "atter": 4081,
    "IC": 4082,
    "budget": 4083,
    "Tot": 4084,
    "comment": 4085,
    "vised": 4086,
    "remains": 4087,
    "GPU": 4088,
    "ji": 4089,
    "xt": 4090,
    "ния": 4091,
    "IA": 4092,
    "trends": 4093,
    "gather": 4094,
    "cit": 4095,
    "funny": 4096,
    "Gr": 4097,
    "electron": 4098,
    "thern": 4099,
    "relatively": 4100,
    "Est": 4101,
    "Ca": 4102,
    "onto": 4103,
    "reliable": 4104,
    "rates": 4105,
    "neut": 4106,
    "destination": 4107,
    "bilities": 4108,
    "tics": 4109,
    "ald": 4110,
    "zil": 4111,
    "ressive": 4112,
    "pip": 4113,
    "exactly": 4114,
    "None": 4115,
    "defe": 4116,
    "cats": 4117,
    "weapons": 4118,
    "encing": 4119,
    "shad": 4120,
    "Ed": 4121,
    "avi": 4122,
    "iffiff": 4123,
    "construct": 4124,
    "Have": 4125,
    "pto": 4126,
    "unable": 4127,
    "tex": 4128,
    "forces": 4129,
    "impl": 4130,
    "afra": 4131,
    "strict": 4132,
    "Dr": 4133,
    "ora": 4134,
    "indicate": 4135,
    "Week": 4136,
    "yond": 4137,
    "weeks": 4138,
    "serious": 4139,
    "finite": 4140,
    "clarify": 4141,
    "что": 4142,
    "avas": 4143,
    "append": 4144,
    "det": 4145,
    "enses": 4146,
    "walking": 4147,
    "tone": 4148,
    "female": 4149,
    "salt": 4150,
    "extension": 4151,
    "über": 4152,
    "seed": 4153,
    "authen": 4154,
    "Engine": 4155,
    "fat": 4156,
    "bottom": 4157,
    "primary": 4158,
    "legs": 4159,
    "icing": 4160,
    "Event": 4161,
    "CL": 4162,
    "navigate": 4163,
    "changing": 4164,
    "Hy": 4165,
    "font": 4166,
    "pm": 4167,
    "zo": 4168,
    "Main": 4169,
    "einen": 4170,
    "teas": 4171,
    "Langu": 4172,
    "avascript": 4173,
    "quite": 4174,
    "Enter": 4175,
    "decl": 4176,
    "Log": 4177,
    "uries": 4178,
    "familiar": 4179,
    "aspects": 4180,
    "immedi": 4181,
    "PD": 4182,
    "cars": 4183,
    "kan": 4184,
    "icit": 4185,
    "received": 4186,
    "Frame": 4187,
    "confidence": 4188,
    "tables": 4189,
    "ста": 4190,
    "summar": 4191,
    "collection": 4192,
    "brown": 4193,
    "covers": 4194,
    "dogs": 4195,
    "moral": 4196,
    "pizza": 4197,
    "sometimes": 4198,
    "ork": 4199,
    "equipment": 4200,
    "circum": 4201,
    "tem": 4202,
    "leader": 4203,
    "traffic": 4204,
    "seconds": 4205,
    "separate": 4206,
    "бо": 4207,
    "Apple": 4208,
    "Rust": 4209,
    "ilet": 4210,
    "hero": 4211,
    "rt": 4212,
    "zing": 4213,
    "causes": 4214,
    "matches": 4215,
    "yout": 4216,
    "Fol": 4217,
    "usage": 4218,
    "operator": 4219,
    "bowl": 4220,
    "Tor": 4221,
    "fictional": 4222,
    "pep": 4223,
    "fundamental": 4224,
    "FI": 4225,
    "Blue": 4226,
    "ared": 4227,
    "ROM": 4228,
    "incorpor": 4229,
    "restaurant": 4230,
    "seu": 4231,
    "purposes": 4232,
    "Mid": 4233,
    "Generate": 4234,
    "construction": 4235,
    "reply": 4236,
    "hands": 4237,
    "ratio": 4238,
    "describes": 4239,
    "choices": 4240,
    "jobs": 4241,
    "Example": 4242,
    "concise": 4243,
    "ella": 4244,
    "tp": 4245,
    "crow": 4246,
    "mole": 4247,
    "ios": 4248,
    "null": 4249,
    "teams": 4250,
    "vac": 4251,
    "Union": 4252,
    "America": 4253,
    "Kore": 4254,
    "rent": 4255,
    "sau": 4256,
    "agement": 4257,
    "Ein": 4258,
    "strengths": 4259,
    "Brazil": 4260,
    "ao": 4261,
    "pict": 4262,
    "gameplay": 4263,
    "Mac": 4264,
    "sensitive": 4265,
    "distinct": 4266,
    "described": 4267,
    "ounts": 4268,
    "diag": 4269,
    "Si": 4270,
    "sorted": 4271,
    "afraid": 4272,
    "Tit": 4273,
    "Air": 4274,
    "god": 4275,
    "impos": 4276,
    "electr": 4277,
    "Jan": 4278,
    "же": 4279,
    "Mer": 4280,
    "Microsoft": 4281,
    "quad": 4282,
    "Point": 4283,
    "candid": 4284,
    "eating": 4285,
    "pel": 4286,
    "gins": 4287,
    "Find": 4288,
    "ride": 4289,
    "ctors": 4290,
    "itution": 4291,
    "hydro": 4292,
    "infrastructure": 4293,
    "held": 4294,
    "exam": 4295,
    "transportation": 4296,
    "ih": 4297,
    "poly": 4298,
    "carbon": 4299,
    "mobile": 4300,
    "loved": 4301,
    "miles": 4302,
    "grid": 4303,
    "xiety": 4304,
    "magic": 4305,
    "reward": 4306,
    "sustainable": 4307,
    "trig": 4308,
    "couldn": 4309,
    "attacks": 4310,
    "wo": 4311,
    "pensive": 4312,
    "environmental": 4313,
    "brief": 4314,
    "ille": 4315,
    "alternative": 4316,
    "learned": 4317,
    "lyrics": 4318,
    "Number": 4319,
    "doctor": 4320,
    "meal": 4321,
    "balls": 4322,
    "remote": 4323,
    "fran": 4324,
    "añ": 4325,
    "launch": 4326,
    "fu": 4327,
    "nia": 4328,
    "Oh": 4329,
    "mentioned": 4330,
    "disease": 4331,
    "died": 4332,
    "exercise": 4333,
    "battery": 4334,
    "unk": 4335,
    "react": 4336,
    "gard": 4337,
    "cycle": 4338,
    "stell": 4339,
    "Dire": 4340,
    "enh": 4341,
    "survival": 4342,
    "Look": 4343,
    "igation": 4344,
    "Language": 4345,
    "Choose": 4346,
    "coin": 4347,
    "equations": 4348,
    "Bas": 4349,
    "frequency": 4350,
    "Lis": 4351,
    "Bus": 4352,
    "ising": 4353,
    "gravity": 4354,
    "lt": 4355,
    "ду": 4356,
    "itize": 4357,
    "shown": 4358,
    "harmful": 4359,
    "passion": 4360,
    "upper": 4361,
    "Tai": 4362,
    "Ich": 4363,
    "paralle": 4364,
    "habit": 4365,
    "neur": 4366,
    "amounts": 4367,
    "lose": 4368,
    "aren": 4369,
    "office": 4370,
    "scientists": 4371,
    "talking": 4372,
    "este": 4373,
    "Black": 4374,
    "multipl": 4375,
    "mption": 4376,
    "sight": 4377,
    "continues": 4378,
    "drink": 4379,
    "Fre": 4380,
    "functional": 4381,
    "athers": 4382,
    "himself": 4383,
    "auch": 4384,
    "sharp": 4385,
    "eli": 4386,
    "highlight": 4387,
    "txt": 4388,
    "avec": 4389,
    "toilet": 4390,
    "expensive": 4391,
    "mechanisms": 4392,
    "translation": 4393,
    "Mark": 4394,
    "ero": 4395,
    "ча": 4396,
    "Dep": 4397,
    "Hey": 4398,
    "ami": 4399,
    "inser": 4400,
    "nic": 4401,
    "eg": 4402,
    "growing": 4403,
    "heavy": 4404,
    "aff": 4405,
    "specify": 4406,
    "relative": 4407,
    "aling": 4408,
    "Because": 4409,
    "spend": 4410,
    "tomato": 4411,
    "Roman": 4412,
    "planning": 4413,
    "exploration": 4414,
    "boat": 4415,
    "Park": 4416,
    "pression": 4417,
    "votre": 4418,
    "zes": 4419,
    "Sha": 4420,
    "slight": 4421,
    "ret": 4422,
    "carry": 4423,
    "fixed": 4424,
    "roid": 4425,
    "Total": 4426,
    "сь": 4427,
    "parent": 4428,
    "James": 4429,
    "DI": 4430,
    "freedom": 4431,
    "prints": 4432,
    "decided": 4433,
    "wild": 4434,
    "augh": 4435,
    "oppos": 4436,
    "ENT": 4437,
    "cards": 4438,
    "folder": 4439,
    "driver": 4440,
    "unning": 4441,
    "responding": 4442,
    "laugh": 4443,
    "tea": 4444,
    "shir": 4445,
    "ées": 4446,
    "escape": 4447,
    "manner": 4448,
    "ros": 4449,
    "vid": 4450,
    "beyond": 4451,
    "bles": 4452,
    "Does": 4453,
    "Describe": 4454,
    "comprehensive": 4455,
    "Respon": 4456,
    "theore": 4457,
    "instance": 4458,
    "Game": 4459,
    "observ": 4460,
    "hardware": 4461,
    "argue": 4462,
    "logical": 4463,
    "eler": 4464,
    "пе": 4465,
    "teaspoon": 4466,
    "wave": 4467,
    "noting": 4468,
    "FROM": 4469,
    "cele": 4470,
    "10": 4471,
    "manager": 4472,
    "President": 4473,
    "outcome": 4474,
    "illa": 4475,
    "cream": 4476,
    "destroy": 4477,
    "sister": 4478,
    "schedule": 4479,
    "partner": 4480,
    "Product": 4481,
    "Implement": 4482,
    "können": 4483,
    "club": 4484,
    "applied": 4485,
    "flag": 4486,
    "Under": 4487,
    "App": 4488,
    "percent": 4489,
    "bust": 4490,
    "Ze": 4491,
    "Wild": 4492,
    "nesses": 4493,
    "icated": 4494,
    "rank": 4495,
    "cris": 4496,
    "bash": 4497,
    "wants": 4498,
    "interactions": 4499,
    "iny": 4500,
    "ups": 4501,
    "controll": 4502,
    "looks": 4503,
    "NA": 4504,
    "zzzz": 4505,
    "LP": 4506,
    "statements": 4507,
    "sentiment": 4508,
    "protection": 4509,
    "stone": 4510,
    "units": 4511,
    "Christ": 4512,
    "correctly": 4513,
    "einer": 4514,
    "subjective": 4515,
    "alian": 4516,
    "recommendations": 4517,
    "machines": 4518,
    "wan": 4519,
    "session": 4520,
    "managing": 4521,
    "moves": 4522,
    "CH": 4523,
    "existence": 4524,
    "surance": 4525,
    "ние": 4526,
    "nd": 4527,
    "INT": 4528,
    "Pract": 4529,
    "pic": 4530,
    "gui": 4531,
    "wrap": 4532,
    "univers": 4533,
    "depart": 4534,
    "stands": 4535,
    "Select": 4536,
    "basket": 4537,
    "Que": 4538,
    "updated": 4539,
    "updates": 4540,
    "movies": 4541,
    "parents": 4542,
    "combat": 4543,
    "experienced": 4544,
    "daj": 4545,
    "mé": 4546,
    "phenom": 4547,
    "Prof": 4548,
    "celebr": 4549,
    "studies": 4550,
    "lla": 4551,
    "fon": 4552,
    "ador": 4553,
    "flexible": 4554,
    "cto": 4555,
    "isk": 4556,
    "steel": 4557,
    "Lucy": 4558,
    "pul": 4559,
    "followed": 4560,
    "Machine": 4561,
    "Sil": 4562,
    "anxiety": 4563,
    "believed": 4564,
    "iced": 4565,
    "Calculate": 4566,
    "сти": 4567,
    "ona": 4568,
    "ln": 4569,
    "tire": 4570,
    "erg": 4571,
    "massive": 4572,
    "articles": 4573,
    "reve": 4574,
    "York": 4575,
    "dish": 4576,
    "happiness": 4577,
    "minimum": 4578,
    "fear": 4579,
    "opponent": 4580,
    "spo": 4581,
    "told": 4582,
    "pairs": 4583,
    "motion": 4584,
    "Sin": 4585,
    "Train": 4586,
    "Their": 4587,
    "Jup": 4588,
    "Software": 4589,
    "Verse": 4590,
    "lad": 4591,
    "experts": 4592,
    "PM": 4593,
    "bly": 4594,
    "ource": 4595,
    "encia": 4596,
    "BA": 4597,
    "itude": 4598,
    "passed": 4599,
    "powers": 4600,
    "grees": 4601,
    "plane": 4602,
    "metrics": 4603,
    "Cur": 4604,
    "fas": 4605,
    "modify": 4606,
    "butter": 4607,
    "difficulty": 4608,
    "при": 4609,
    "suming": 4610,
    "alpha": 4611,
    "degree": 4612,
    "confusion": 4613,
    "Key": 4614,
    "delicious": 4615,
    "ishing": 4616,
    "domin": 4617,
    "chosen": 4618,
    "vibr": 4619,
    "degrees": 4620,
    "px": 4621,
    "clock": 4622,
    "island": 4623,
    "Intro": 4624,
    "agreement": 4625,
    "Dat": 4626,
    "payment": 4627,
    "village": 4628,
    "gradu": 4629,
    "completely": 4630,
    "compar": 4631,
    "release": 4632,
    "ocean": 4633,
    "proof": 4634,
    "solid": 4635,
    "comfort": 4636,
    "India": 4637,
    "Russia": 4638,
    "Quant": 4639,
    "invent": 4640,
    "estern": 4641,
    "decide": 4642,
    "orange": 4643,
    "Bel": 4644,
    "ис": 4645,
    "Sat": 4646,
    "pros": 4647,
    "driving": 4648,
    "Research": 4649,
    "workers": 4650,
    "sitting": 4651,
    "ometry": 4652,
    "parse": 4653,
    "shadow": 4654,
    "international": 4655,
    "entry": 4656,
    "imagin": 4657,
    "prison": 4658,
    "independent": 4659,
    "som": 4660,
    "apo": 4661,
    "Mess": 4662,
    "Mary": 4663,
    "messages": 4664,
    "creation": 4665,
    "killed": 4666,
    "profession": 4667,
    "Tru": 4668,
    "ци": 4669,
    "má": 4670,
    "specifically": 4671,
    "VID": 4672,
    "smooth": 4673,
    "noise": 4674,
    "estimate": 4675,
    "ders": 4676,
    "lean": 4677,
    "Invest": 4678,
    "Management": 4679,
    "instal": 4680,
    "oro": 4681,
    "tensor": 4682,
    "pool": 4683,
    "зо": 4684,
    "checks": 4685,
    "dynamic": 4686,
    "exchange": 4687,
    "clothing": 4688,
    "British": 4689,
    "ards": 4690,
    "modelo": 4691,
    "feathers": 4692,
    "strings": 4693,
    "revenue": 4694,
    "theme": 4695,
    "Best": 4696,
    "itchen": 4697,
    "graphics": 4698,
    "Tur": 4699,
    "ublic": 4700,
    "becoming": 4701,
    "creatures": 4702,
    "False": 4703,
    "humanity": 4704,
    "Instead": 4705,
    "outcomes": 4706,
    "ivo": 4707,
    "overcome": 4708,
    "enable": 4709,
    "bun": 4710,
    "flat": 4711,
    "Identify": 4712,
    "astr": 4713,
    "Museum": 4714,
    "pull": 4715,
    "advance": 4716,
    "realistic": 4717,
    "údaj": 4718,
    "TP": 4719,
    "multiply": 4720,
    "ку": 4721,
    "Sally": 4722,
    "Afric": 4723,
    "beginning": 4724,
    "integers": 4725,
    "Mod": 4726,
    "DB": 4727,
    "breaks": 4728,
    "graphic": 4729,
    "driven": 4730,
    "cot": 4731,
    "baking": 4732,
    "iver": 4733,
    "categor": 4734,
    "äh": 4735,
    "desire": 4736,
    "instru": 4737,
    "violence": 4738,
    "alien": 4739,
    "obtain": 4740,
    "Pat": 4741,
    "recor": 4742,
    "repl": 4743,
    "represented": 4744,
    "arily": 4745,
    "Evalu": 4746,
    "shell": 4747,
    "Contro": 4748,
    "containing": 4749,
    "lig": 4750,
    "SA": 4751,
    "neighbor": 4752,
    "recognition": 4753,
    "assets": 4754,
    "admin": 4755,
    "NN": 4756,
    "isol": 4757,
    "cooking": 4758,
    "brid": 4759,
    "instruction": 4760,
    "IV": 4761,
    "Mem": 4762,
    "criter": 4763,
    "javascript": 4764,
    "optimization": 4765,
    "pir": 4766,
    "vie": 4767,
    "limitations": 4768,
    "pré": 4769,
    "axis": 4770,
    "mö": 4771,
    "Space": 4772,
    "inking": 4773,
    "vegetables": 4774,
    "wich": 4775,
    "Sci": 4776,
    "ads": 4777,
    "Client": 4778,
    "proced": 4779,
    "profit": 4780,
    "stage": 4781,
    "kit": 4782,
    "Math": 4783,
    "Vol": 4784,
    "station": 4785,
    "Jupiter": 4786,
    "deliver": 4787,
    "facing": 4788,
    "breath": 4789,
    "bug": 4790,
    "commands": 4791,
    "Sto": 4792,
    "deriv": 4793,
    "bage": 4794,
    "Opt": 4795,
    "хо": 4796,
    "Jes": 4797,
    "Span": 4798,
    "appearance": 4799,
    "syntax": 4800,
    "plans": 4801,
    "circle": 4802,
    "hop": 4803,
    "medium": 4804,
    "bing": 4805,
    "proto": 4806,
    "missing": 4807,
    "banana": 4808,
    "raine": 4809,
    "Pos": 4810,
    "mill": 4811,
    "throw": 4812,
    "idents": 4813,
    "survive": 4814,
    "ního": 4815,
    "beans": 4816,
    "dimensional": 4817,
    "Player": 4818,
    "jok": 4819,
    "vehicle": 4820,
    "thes": 4821,
    "plants": 4822,
    "Comput": 4823,
    "hous": 4824,
    "January": 4825,
    "mouse": 4826,
    "anda": 4827,
    "gift": 4828,
    "landscape": 4829,
    "itute": 4830,
    "gt": 4831,
    "inc": 4832,
    "pero": 4833,
    "except": 4834,
    "minute": 4835,
    "Tokyo": 4836,
    "му": 4837,
    "Mi": 4838,
    "prices": 4839,
    "WS": 4840,
    "folio": 4841,
    "iger": 4842,
    "Show": 4843,
    "izar": 4844,
    "cute": 4845,
    "ING": 4846,
    "expertise": 4847,
    "rier": 4848,
    "esty": 4849,
    "leaving": 4850,
    "ör": 4851,
    "affected": 4852,
    "xic": 4853,
    "Cam": 4854,
    "Solve": 4855,
    "wird": 4856,
    "nach": 4857,
    "mazon": 4858,
    "heard": 4859,
    "labels": 4860,
    "plugin": 4861,
    "PL": 4862,
    "64": 4863,
    "ED": 4864,
    "Qual": 4865,
    "Ru": 4866,
    "cht": 4867,
    "crypto": 4868,
    "entity": 4869,
    "blocks": 4870,
    "meant": 4871,
    "waste": 4872,
    "regularly": 4873,
    "кото": 4874,
    "api": 4875,
    "atta": 4876,
    "údajního": 4877,
    "competition": 4878,
    "Human": 4879,
    "cop": 4880,
    "riddle": 4881,
    "slightly": 4882,
    "cles": 4883,
    "apart": 4884,
    "Coun": 4885,
    "lege": 4886,
    "clients": 4887,
    "coordin": 4888,
    "cancer": 4889,
    "template": 4890,
    "Button": 4891,
    "illegal": 4892,
    "Los": 4893,
    "competitive": 4894,
    "iso": 4895,
    "arm": 4896,
    "obst": 4897,
    "circu": 4898,
    "dinner": 4899,
    "accurately": 4900,
    "Mars": 4901,
    "external": 4902,
    "suring": 4903,
    "nur": 4904,
    "raise": 4905,
    "prepared": 4906,
    "iate": 4907,
    "practical": 4908,
    "generating": 4909,
    "bea": 4910,
    "dependencies": 4911,
    "Node": 4912,
    "magnetic": 4913,
    "ungs": 4914,
    "Image": 4915,
    "loyal": 4916,
    "myster": 4917,
    "connections": 4918,
    "RAM": 4919,
    "metal": 4920,
    "cution": 4921,
    "optimal": 4922,
    "pace": 4923,
    "Introdu": 4924,
    "Phone": 4925,
    "calls": 4926,
    "Cha": 4927,
    "itar": 4928,
    "communities": 4929,
    "therap": 4930,
    "Moon": 4931,
    "Cus": 4932,
    "grade": 4933,
    "register": 4934,
    "зе": 4935,
    "concent": 4936,
    "Les": 4937,
    "flight": 4938,
    "forts": 4939,
    "kil": 4940,
    "influenced": 4941,
    "viation": 4942,
    "uly": 4943,
    "stract": 4944,
    "referring": 4945,
    "TR": 4946,
    "icker": 4947,
    "MO": 4948,
    "underlying": 4949,
    "saying": 4950,
    "tells": 4951,
    "pati": 4952,
    "styles": 4953,
    "characteristics": 4954,
    "CSV": 4955,
    "hyper": 4956,
    "informed": 4957,
    "vin": 4958,
    "straight": 4959,
    "Title": 4960,
    "nombre": 4961,
    "Also": 4962,
    "transmit": 4963,
    "Only": 4964,
    "Em": 4965,
    "chron": 4966,
    "MS": 4967,
    "Gree": 4968,
    "champ": 4969,
    "skilled": 4970,
    "CC": 4971,
    "outputs": 4972,
    "subtract": 4973,
    "clos": 4974,
    "songs": 4975,
    "chess": 4976,
    "hers": 4977,
    "có": 4978,
    "está": 4979,
    "extremely": 4980,
    "ched": 4981,
    "Gen": 4982,
    "privacy": 4983,
    "lace": 4984,
    "Post": 4985,
    "Sep": 4986,
    "efficiently": 4987,
    "Tes": 4988,
    "Auto": 4989,
    "cil": 4990,
    "mpy": 4991,
    "sink": 4992,
    "Pot": 4993,
    "mic": 4994,
    "official": 4995,
    "tab": 4996,
    "pounds": 4997,
    "ians": 4998,
    "nation": 4999,
    "hole": 5000,
    "jug": 5001,
    "compat": 5002,
    "inputs": 5003,
    "Line": 5004,
    "orial": 5005,
    "impossible": 5006,
    "meaningful": 5007,
    "жи": 5008,
    "fab": 5009,
    "rc": 5010,
    "contributions": 5011,
    "aign": 5012,
    "unter": 5013,
    "intent": 5014,
    "Ges": 5015,
    "parallel": 5016,
    "Well": 5017,
    "pursu": 5018,
    "greatest": 5019,
    "recognize": 5020,
    "personalized": 5021,
    "ensor": 5022,
    "Conne": 5023,
    "calculated": 5024,
    "Field": 5025,
    "End": 5026,
    "constra": 5027,
    "bill": 5028,
    "recipe": 5029,
    "established": 5030,
    "speaker": 5031,
    "puzzle": 5032,
    "artist": 5033,
    "evaluation": 5034,
    "spaces": 5035,
    "React": 5036,
    "ening": 5037,
    "sobre": 5038,
    "critic": 5039,
    "ulture": 5040,
    "moved": 5041,
    "sheet": 5042,
    "han": 5043,
    "Mat": 5044,
    "serving": 5045,
    "Agente": 5046,
    "rab": 5047,
    "enemies": 5048,
    "Deep": 5049,
    "supports": 5050,
    "enty": 5051,
    "bold": 5052,
    "museum": 5053,
    "Every": 5054,
    "suffer": 5055,
    "Project": 5056,
    "export": 5057,
    "TO": 5058,
    "sia": 5059,
    "Business": 5060,
    "Ju": 5061,
    "purchase": 5062,
    "gave": 5063,
    "Lab": 5064,
    "fection": 5065,
    "intelligent": 5066,
    "layout": 5067,
    "Sam": 5068,
    "elo": 5069,
    "improvement": 5070,
    "tests": 5071,
    "па": 5072,
    "tooth": 5073,
    "installed": 5074,
    "wife": 5075,
    "veloc": 5076,
    "classification": 5077,
    "requests": 5078,
    "Init": 5079,
    "worked": 5080,
    "nodes": 5081,
    "truly": 5082,
    "immediately": 5083,
    "icts": 5084,
    "accomp": 5085,
    "SI": 5086,
    "VPN": 5087,
    "wen": 5088,
    "och": 5089,
    "Amazon": 5090,
    "ites": 5091,
    "appoint": 5092,
    "Rand": 5093,
    "roles": 5094,
    "published": 5095,
    "Fran": 5096,
    "regulations": 5097,
    "drug": 5098,
    "ashion": 5099,
    "turned": 5100,
    "Health": 5101,
    "People": 5102,
    "phrases": 5103,
    "plays": 5104,
    "dian": 5105,
    "radio": 5106,
    "verb": 5107,
    "fr": 5108,
    "spent": 5109,
    "bol": 5110,
    "Path": 5111,
    "entertain": 5112,
    "iva": 5113,
    "Ukraine": 5114,
    "windows": 5115,
    "iving": 5116,
    "amaz": 5117,
    "metric": 5118,
    "positions": 5119,
    "regardless": 5120,
    "careful": 5121,
    "completed": 5122,
    "covered": 5123,
    "Twitter": 5124,
    "quar": 5125,
    "pandas": 5126,
    "occas": 5127,
    "Commun": 5128,
    "significantly": 5129,
    "intenance": 5130,
    "unexpected": 5131,
    "explicit": 5132,
    "helped": 5133,
    "agram": 5134,
    "comments": 5135,
    "Click": 5136,
    "acter": 5137,
    "kept": 5138,
    "maintaining": 5139,
    "aca": 5140,
    "shor": 5141,
    "stration": 5142,
    "tk": 5143,
    "sauce": 5144,
    "experiencing": 5145,
    "colon": 5146,
    "Ref": 5147,
    "forget": 5148,
    "Ass": 5149,
    "efforts": 5150,
    "implications": 5151,
    "v2": 5152,
    "philosophy": 5153,
    "cultures": 5154,
    "contents": 5155,
    "campaign": 5156,
    "anks": 5157,
    "sont": 5158,
    "нны": 5159,
    "Fire": 5160,
    "Spanish": 5161,
    "Fibonacci": 5162,
    "subset": 5163,
    "dance": 5164,
    "gency": 5165,
    "included": 5166,
    "respectful": 5167,
    "tut": 5168,
    "iring": 5169,
    "capacity": 5170,
    "belong": 5171,
    "header": 5172,
    "Learn": 5173,
    "Mal": 5174,
    "vic": 5175,
    "ieren": 5176,
    "ius": 5177,
    "okay": 5178,
    "introduced": 5179,
    "keywords": 5180,
    "commercial": 5181,
    "afford": 5182,
    "implemented": 5183,
    "pd": 5184,
    "cyber": 5185,
    "considering": 5186,
    "Inte": 5187,
    "diction": 5188,
    "cake": 5189,
    "seg": 5190,
    "prioritize": 5191,
    "Sing": 5192,
    "density": 5193,
    "bird": 5194,
    "Content": 5195,
    "Cer": 5196,
    "meat": 5197,
    "illu": 5198,
    "numpy": 5199,
    "cular": 5200,
    "echo": 5201,
    "gory": 5202,
    "opposite": 5203,
    "PI": 5204,
    "PO": 5205,
    "branch": 5206,
    "ensuring": 5207,
    "investing": 5208,
    "shift": 5209,
    "vibrant": 5210,
    "Okay": 5211,
    "precision": 5212,
    "Cel": 5213,
    "GB": 5214,
    "peut": 5215,
    "ingredient": 5216,
    "puede": 5217,
    "lis": 5218,
    "Server": 5219,
    "frac": 5220,
    "camera": 5221,
    "simplif": 5222,
    "Year": 5223,
    "portfolio": 5224,
    "changed": 5225,
    "excited": 5226,
    "absol": 5227,
    "ria": 5228,
    "election": 5229,
    "tication": 5230,
    "perspectives": 5231,
    "coins": 5232,
    "jar": 5233,
    "Mine": 5234,
    "Zel": 5235,
    "ну": 5236,
    "Ko": 5237,
    "ighter": 5238,
    "ederal": 5239,
    "mming": 5240,
    "dialogue": 5241,
    "fro": 5242,
    "absor": 5243,
    "mathematics": 5244,
    "tons": 5245,
    "selection": 5246,
    "pher": 5247,
    "stability": 5248,
    "fighting": 5249,
    "jun": 5250,
    "Rel": 5251,
    "finally": 5252,
    "pret": 5253,
    "Land": 5254,
    "Lim": 5255,
    "Sc": 5256,
    "lier": 5257,
    "temperatures": 5258,
    "teen": 5259,
    "broken": 5260,
    "obstac": 5261,
    "quote": 5262,
    "ini": 5263,
    "Room": 5264,
    "currency": 5265,
    "galax": 5266,
    "powered": 5267,
    "Ben": 5268,
    "ér": 5269,
    "oral": 5270,
    "informa": 5271,
    "fantasy": 5272,
    "Cent": 5273,
    "clothes": 5274,
    "June": 5275,
    "ashing": 5276,
    "films": 5277,
    "DD": 5278,
    "ara": 5279,
    "sql": 5280,
    "Random": 5281,
    "urer": 5282,
    "discovered": 5283,
    "thick": 5284,
    "creativity": 5285,
    "adds": 5286,
    "bread": 5287,
    "Empire": 5288,
    "kon": 5289,
    "defines": 5290,
    "overview": 5291,
    "seeking": 5292,
    "acceler": 5293,
    "signals": 5294,
    "guidel": 5295,
    "justice": 5296,
    "diagno": 5297,
    "eco": 5298,
    "necessarily": 5299,
    "facil": 5300,
    "continuous": 5301,
    "sad": 5302,
    "nn": 5303,
    "raised": 5304,
    "mistakes": 5305,
    "Simp": 5306,
    "dan": 5307,
    "kitchen": 5308,
    "Knight": 5309,
    "Quantum": 5310,
    "criteria": 5311,
    "sqrt": 5312,
    "être": 5313,
    "digits": 5314,
    "ridge": 5315,
    "magical": 5316,
    "potato": 5317,
    "Stay": 5318,
    "ament": 5319,
    "chocol": 5320,
    "guar": 5321,
    "bath": 5322,
    "horiz": 5323,
    "notice": 5324,
    "samples": 5325,
    "lor": 5326,
    "compass": 5327,
    "Contin": 5328,
    "telling": 5329,
    "aaaaaaaaaaaaaaaaaaaaaaaaaaaaaaaa": 5330,
    "RRS": 5331,
    "handling": 5332,
    "stunning": 5333,
    "unders": 5334,
    "strange": 5335,
    "roleplay": 5336,
    "mixture": 5337,
    "parties": 5338,
    "missions": 5339,
    "agg": 5340,
    "ured": 5341,
    "contrast": 5342,
    "execute": 5343,
    "waves": 5344,
    "сто": 5345,
    "sandwich": 5346,
    "ham": 5347,
    "stronger": 5348,
    "optimize": 5349,
    "ira": 5350,
    "pages": 5351,
    "notes": 5352,
    "Oper": 5353,
    "stocks": 5354,
    "insurance": 5355,
    "Action": 5356,
    "spiritual": 5357,
    "speaking": 5358,
    "Company": 5359,
    "Az": 5360,
    "Without": 5361,
    "fing": 5362,
    "AND": 5363,
    "encourage": 5364,
    "sports": 5365,
    "ua": 5366,
    "consists": 5367,
    "SD": 5368,
    "Back": 5369,
    "username": 5370,
    "route": 5371,
    "focuses": 5372,
    "Prime": 5373,
    "hydr": 5374,
    "ische": 5375,
    "happened": 5376,
    "leadership": 5377,
    "tent": 5378,
    "Elect": 5379,
    "Harry": 5380,
    "sein": 5381,
    "weaknesses": 5382,
    "sharing": 5383,
    "Dear": 5384,
    "iveness": 5385,
    "watching": 5386,
    "Return": 5387,
    "Master": 5388,
    "herself": 5389,
    "marks": 5390,
    "wearing": 5391,
    "improved": 5392,
    "Spr": 5393,
    "approaches": 5394,
    "ERT": 5395,
    "java": 5396,
    "cccccccccccccccc": 5397,
    "ifor": 5398,
    "Chat": 5399,
    "translate": 5400,
    "binary": 5401,
    "chied": 5402,
    "boot": 5403,
    "discrimin": 5404,
    "athy": 5405,
    "Wid": 5406,
    "holding": 5407,
    "usive": 5408,
    "Paris": 5409,
    "ares": 5410,
    "constantly": 5411,
    "dient": 5412,
    "Ja": 5413,
    "Life": 5414,
    "thr": 5415,
    "Light": 5416,
    "luck": 5417,
    "ahead": 5418,
    "owner": 5419,
    "cohol": 5420,
    "ias": 5421,
    "Security": 5422,
    "onomy": 5423,
    "spray": 5424,
    "chart": 5425,
    "plic": 5426,
    "mou": 5427,
    "ultimately": 5428,
    "Bat": 5429,
    "cimal": 5430,
    "revolution": 5431,
    "smile": 5432,
    "industries": 5433,
    "ões": 5434,
    "Sa": 5435,
    "crucial": 5436,
    "rive": 5437,
    "Pay": 5438,
    "Follow": 5439,
    "cert": 5440,
    "turns": 5441,
    "utilis": 5442,
    "Cry": 5443,
    "ui": 5444,
    "dre": 5445,
    "umin": 5446,
    "checking": 5447,
    "ician": 5448,
    "loads": 5449,
    "Indon": 5450,
    "URL": 5451,
    "ня": 5452,
    "vacc": 5453,
    "CPU": 5454,
    "preser": 5455,
    "stro": 5456,
    "nearby": 5457,
    "prepar": 5458,
    "ults": 5459,
    "Science": 5460,
    "belief": 5461,
    "cuent": 5462,
    "fen": 5463,
    "accomplish": 5464,
    "writer": 5465,
    "circumst": 5466,
    "creature": 5467,
    "nas": 5468,
    "Indones": 5469,
    "FA": 5470,
    "Design": 5471,
    "Russian": 5472,
    "balanced": 5473,
    "ships": 5474,
    "rice": 5475,
    "Bet": 5476,
    "idade": 5477,
    "etic": 5478,
    "llama": 5479,
    "insert": 5480,
    "resolution": 5481,
    "helping": 5482,
    "foods": 5483,
    "browser": 5484,
    "summer": 5485,
    "Call": 5486,
    "police": 5487,
    "scatter": 5488,
    "Print": 5489,
    "memor": 5490,
    "Son": 5491,
    "ern": 5492,
    "functionality": 5493,
    "falls": 5494,
    "Dist": 5495,
    "anz": 5496,
    "Sur": 5497,
    "breaking": 5498,
    "engineer": 5499,
    "arios": 5500,
    "Vo": 5501,
    "signs": 5502,
    "motor": 5503,
    "OL": 5504,
    "Fil": 5505,
    "fourth": 5506,
    "hill": 5507,
    "WH": 5508,
    "older": 5509,
    "TH": 5510,
    "ше": 5511,
    "likes": 5512,
    "fn": 5513,
    "hom": 5514,
    "keeping": 5515,
    "ught": 5516,
    "myself": 5517,
    "distributed": 5518,
    "horse": 5519,
    "firm": 5520,
    "surrounding": 5521,
    "Given": 5522,
    "Avoid": 5523,
    "processed": 5524,
    "EX": 5525,
    "Sales": 5526,
    "Big": 5527,
    "elim": 5528,
    "climb": 5529,
    "compute": 5530,
    "Isra": 5531,
    "rare": 5532,
    "finds": 5533,
    "Before": 5534,
    "standards": 5535,
    "plas": 5536,
    "oven": 5537,
    "mechanism": 5538,
    "га": 5539,
    "未央未央未央未央未央未央未央未央未央未央未央未央未央未央未央未央": 5540,
    "Grou": 5541,
    "Kingdom": 5542,
    "exercis": 5543,
    "environments": 5544,
    "Der": 5545,
    "inspired": 5546,
    "pepper": 5547,
    "calculation": 5548,
    "locations": 5549,
    "asset": 5550,
    "sect": 5551,
    "guidelines": 5552,
    "tech": 5553,
    "holder": 5554,
    "trap": 5555,
    "definit": 5556,
    "atoms": 5557,
    "answering": 5558,
    "bei": 5559,
    "tried": 5560,
    "nar": 5561,
    "schema": 5562,
    "www": 5563,
    "vors": 5564,
    "terminal": 5565,
    "toxic": 5566,
    "Mic": 5567,
    "broad": 5568,
    "beit": 5569,
    "Function": 5570,
    "certa": 5571,
    "maintenance": 5572,
    "quid": 5573,
    "combined": 5574,
    "produced": 5575,
    "queries": 5576,
    "geo": 5577,
    "chest": 5578,
    "ongoing": 5579,
    "ises": 5580,
    "metap": 5581,
    "circumstances": 5582,
    "closed": 5583,
    "pod": 5584,
    "Rest": 5585,
    "mig": 5586,
    "Dif": 5587,
    "West": 5588,
    "unge": 5589,
    "timate": 5590,
    "tial": 5591,
    "innovative": 5592,
    "heit": 5593,
    "wish": 5594,
    "icial": 5595,
    "Cat": 5596,
    "ums": 5597,
    "caf": 5598,
    "jokes": 5599,
    "Through": 5600,
    "selected": 5601,
    "attributes": 5602,
    "Dece": 5603,
    "ще": 5604,
    "Ren": 5605,
    "excl": 5606,
    "fficient": 5607,
    "traction": 5608,
    "amin": 5609,
    "nest": 5610,
    "Lon": 5611,
    "gust": 5612,
    "tight": 5613,
    "batch": 5614,
    "conven": 5615,
    "enhance": 5616,
    "mise": 5617,
    "divide": 5618,
    "yog": 5619,
    "channels": 5620,
    "zone": 5621,
    "ulti": 5622,
    "hang": 5623,
    "ictor": 5624,
    "House": 5625,
    "EM": 5626,
    "Taiwan": 5627,
    "Assist": 5628,
    "unknown": 5629,
    "acts": 5630,
    "iques": 5631,
    "myst": 5632,
    "availability": 5633,
    "Temp": 5634,
    "Load": 5635,
    "encounter": 5636,
    "spin": 5637,
    "mun": 5638,
    "automatically": 5639,
    "x1": 5640,
    "x2": 5641,
    "ission": 5642,
    "loves": 5643,
    "license": 5644,
    "advert": 5645,
    "Bro": 5646,
    "Law": 5647,
    "einem": 5648,
    "divided": 5649,
    "planets": 5650,
    "crime": 5651,
    "nice": 5652,
    "Enjoy": 5653,
    "offensive": 5654,
    "PS": 5655,
    "generates": 5656,
    "possibility": 5657,
    "wing": 5658,
    "Por": 5659,
    "mine": 5660,
    "buffer": 5661,
    "satisf": 5662,
    "awareness": 5663,
    "spending": 5664,
    "Tar": 5665,
    "Zelda": 5666,
    "harvest": 5667,
    "flour": 5668,
    "Cliente": 5669,
    "alive": 5670,
    "lists": 5671,
    "thank": 5672,
    "neuro": 5673,
    "reader": 5674,
    "src": 5675,
    "wire": 5676,
    "developer": 5677,
    "integration": 5678,
    "Ele": 5679,
    "Social": 5680,
    "ugu": 5681,
    "mysterious": 5682,
    "ayud": 5683,
    "kilome": 5684,
    "download": 5685,
    "radius": 5686,
    "routine": 5687,
    "Cr": 5688,
    "attempt": 5689,
    "According": 5690,
    "lam": 5691,
    "Trump": 5692,
    "itors": 5693,
    "thetic": 5694,
    "Building": 5695,
    "Focus": 5696,
    "rie": 5697,
    "burg": 5698,
    "gaming": 5699,
    "chocolate": 5700,
    "Willi": 5701,
    "Off": 5702,
    "digit": 5703,
    "bullet": 5704,
    "сть": 5705,
    "cube": 5706,
    "consumption": 5707,
    "ATION": 5708,
    "shorter": 5709,
    "modeling": 5710,
    "tension": 5711,
    "explores": 5712,
    "accident": 5713,
    "Lily": 5714,
    "fascin": 5715,
    "Stre": 5716,
    "reput": 5717,
    "DataFrame": 5718,
    "rays": 5719,
    "Practice": 5720,
    "restaurants": 5721,
    "mt": 5722,
    "BY": 5723,
    "fox": 5724,
    "Git": 5725,
    "Lar": 5726,
    "kingdom": 5727,
    "transformer": 5728,
    "characterized": 5729,
    "turning": 5730,
    "hypothe": 5731,
    "sures": 5732,
    "constraints": 5733,
    "pra": 5734,
    "thy": 5735,
    "bear": 5736,
    "Run": 5737,
    "leads": 5738,
    "Long": 5739,
    "chap": 5740,
    "Du": 5741,
    "это": 5742,
    "nie": 5743,
    "Italian": 5744,
    "delay": 5745,
    "pad": 5746,
    "advis": 5747,
    "academ": 5748,
    "ichtig": 5749,
    "none": 5750,
    "filen": 5751,
    "provider": 5752,
    "benefit": 5753,
    "durch": 5754,
    "orge": 5755,
    "ktop": 5756,
    "Minecraft": 5757,
    "datetime": 5758,
    "brush": 5759,
    "keyboard": 5760,
    "summarize": 5761,
    "packages": 5762,
    "Tesla": 5763,
    "ifornia": 5764,
    "Command": 5765,
    "Bud": 5766,
    "satisfact": 5767,
    "orders": 5768,
    "Pan": 5769,
    "bio": 5770,
    "rem": 5771,
    "quiet": 5772,
    "calculations": 5773,
    "aughter": 5774,
    "ised": 5775,
    "December": 5776,
    "bytes": 5777,
    "snake": 5778,
    "нь": 5779,
    "Cop": 5780,
    "coder": 5781,
    "sten": 5782,
    "gri": 5783,
    "snip": 5784,
    "narr": 5785,
    "realized": 5786,
    "During": 5787,
    "DS": 5788,
    "xygen": 5789,
    "native": 5790,
    "humid": 5791,
    "bomb": 5792,
    "вет": 5793,
    "grams": 5794,
    "из": 5795,
    "hai": 5796,
    "inty": 5797,
    "interval": 5798,
    "acqu": 5799,
    "dings": 5800,
    "ov": 5801,
    "liche": 5802,
    "matic": 5803,
    "чи": 5804,
    "atively": 5805,
    "marine": 5806,
    "documentation": 5807,
    "Mor": 5808,
    "scan": 5809,
    "Fore": 5810,
    "tweet": 5811,
    "holders": 5812,
    "e1": 5813,
    "println": 5814,
    "bucket": 5815,
    "AWS": 5816,
    "inen": 5817,
    "kernel": 5818,
    "dreams": 5819,
    "Face": 5820,
    "interactive": 5821,
    "citiz": 5822,
    "tracking": 5823,
    "лу": 5824,
    "Mas": 5825,
    "electronic": 5826,
    "lung": 5827,
    "buying": 5828,
    "Stu": 5829,
    "objective": 5830,
    "Canada": 5831,
    "umb": 5832,
    "bind": 5833,
    "Um": 5834,
    "OK": 5835,
    "cade": 5836,
    "debate": 5837,
    "Frank": 5838,
    "dict": 5839,
    "websites": 5840,
    "finity": 5841,
    "Age": 5842,
    "ilar": 5843,
    "dataframe": 5844,
    "offering": 5845,
    "sla": 5846,
    "Hal": 5847,
    "finish": 5848,
    "suppl": 5849,
    "objectives": 5850,
    "exciting": 5851,
    "appreciate": 5852,
    "editor": 5853,
    "Cy": 5854,
    "UE": 5855,
    "vez": 5856,
    "memories": 5857,
    "cache": 5858,
    "iPhone": 5859,
    "ota": 5860,
    "servers": 5861,
    "gut": 5862,
    "YouTu": 5863,
    "inches": 5864,
    "ün": 5865,
    "supported": 5866,
    "Incre": 5867,
    "execution": 5868,
    "accounts": 5869,
    "Any": 5870,
    "бе": 5871,
    "dates": 5872,
    "igkeit": 5873,
    "inher": 5874,
    "vehicles": 5875,
    "walls": 5876,
    "opinion": 5877,
    "cash": 5878,
    "eje": 5879,
    "Bos": 5880,
    "opening": 5881,
    "plate": 5882,
    "Pho": 5883,
    "scope": 5884,
    "CR": 5885,
    "employee": 5886,
    "ги": 5887,
    "pou": 5888,
    "Stand": 5889,
    "replaced": 5890,
    "iron": 5891,
    "bien": 5892,
    "ram": 5893,
    "California": 5894,
    "Intern": 5895,
    "dollar": 5896,
    "analyzing": 5897,
    "manufacturing": 5898,
    "formed": 5899,
    "chip": 5900,
    "itu": 5901,
    "fashion": 5902,
    "returned": 5903,
    "wit": 5904,
    "utsch": 5905,
    "Chap": 5906,
    "arms": 5907,
    "rapid": 5908,
    "velocity": 5909,
    "NLP": 5910,
    "Profess": 5911,
    "attend": 5912,
    "itate": 5913,
    "twice": 5914,
    "interpretation": 5915,
    "organized": 5916,
    "listening": 5917,
    "rog": 5918,
    "links": 5919,
    "Bot": 5920,
    "imag": 5921,
    "sac": 5922,
    "protocol": 5923,
    "alloc": 5924,
    "Docker": 5925,
    "rooms": 5926,
    "ву": 5927,
    "pp": 5928,
    "Mit": 5929,
    "certainty": 5930,
    "reveal": 5931,
    "tan": 5932,
    "tood": 5933,
    "finance": 5934,
    "aud": 5935,
    "Green": 5936,
    "anime": 5937,
    "igence": 5938,
    "Joe": 5939,
    "possess": 5940,
    "databases": 5941,
    "Its": 5942,
    "comed": 5943,
    "ansion": 5944,
    "agre": 5945,
    "assume": 5946,
    "lide": 5947,
    "toler": 5948,
    "Multi": 5949,
    "ende": 5950,
    "antes": 5951,
    "knows": 5952,
    "NOT": 5953,
    "collaboration": 5954,
    "performing": 5955,
    "suis": 5956,
    "BM": 5957,
    "holds": 5958,
    "fans": 5959,
    "ratic": 5960,
    "mood": 5961,
    "Two": 5962,
    "regions": 5963,
    "phy": 5964,
    "IG": 5965,
    "Optim": 5966,
    "serves": 5967,
    "incorrect": 5968,
    "nos": 5969,
    "border": 5970,
    "bonds": 5971,
    "investments": 5972,
    "dys": 5973,
    "randint": 5974,
    "mell": 5975,
    "chop": 5976,
    "popul": 5977,
    "apps": 5978,
    "blog": 5979,
    "mort": 5980,
    "Hist": 5981,
    "phas": 5982,
    "Head": 5983,
    "estamp": 5984,
    "increases": 5985,
    "hob": 5986,
    "Mad": 5987,
    "boundaries": 5988,
    "hnen": 5989,
    "investig": 5990,
    "abstract": 5991,
    "heads": 5992,
    "ellen": 5993,
    "innovation": 5994,
    "colo": 5995,
    "negot": 5996,
    "aka": 5997,
    "orient": 5998,
    "ên": 5999,
    "quot": 6000,
    "uct": 6001,
    "ctu": 6002,
    "particle": 6003,
    "slowly": 6004,
    "Process": 6005,
    "neutral": 6006,
    "Ly": 6007,
    "journal": 6008,
    "picture": 6009,
    "partners": 6010,
    "ressed": 6011,
    "tags": 6012,
    "soil": 6013,
    "cred": 6014,
    "Source": 6015,
    "Item": 6016,
    "drawer": 6017,
    "Tod": 6018,
    "ès": 6019,
    "grate": 6020,
    "diversity": 6021,
    "aba": 6022,
    "Final": 6023,
    "Think": 6024,
    "Context": 6025,
    "Color": 6026,
    "orrow": 6027,
    "alcohol": 6028,
    "theories": 6029,
    "hydrogen": 6030,
    "Computer": 6031,
    "controls": 6032,
    "electricity": 6033,
    "nh": 6034,
    "mouth": 6035,
    "authentication": 6036,
    "ISO": 6037,
    "reser": 6038,
    "inspir": 6039,
    "achieved": 6040,
    "Peter": 6041,
    "ousand": 6042,
    "pure": 6043,
    "north": 6044,
    "gentle": 6045,
    "Mr": 6046,
    "centuries": 6047,
    "utter": 6048,
    "entities": 6049,
    "definition": 6050,
    "division": 6051,
    "professionals": 6052,
    "gebra": 6053,
    "sume": 6054,
    "intr": 6055,
    "detection": 6056,
    "enden": 6057,
    "dess": 6058,
    "Bur": 6059,
    "как": 6060,
    "cules": 6061,
    "comparison": 6062,
    "foundation": 6063,
    "Pi": 6064,
    "defeat": 6065,
    "responsibility": 6066,
    "Real": 6067,
    "Market": 6068,
    "Buzz": 6069,
    "demonstr": 6070,
    "isation": 6071,
    "idades": 6072,
    "expenses": 6073,
    "NE": 6074,
    "powder": 6075,
    "onal": 6076,
    "identifying": 6077,
    "asse": 6078,
    "visible": 6079,
    "Ask": 6080,
    "ameter": 6081,
    "candidate": 6082,
    "Love": 6083,
    "consciousness": 6084,
    "Na": 6085,
    "titles": 6086,
    "submit": 6087,
    "rational": 6088,
    "ско": 6089,
    "icher": 6090,
    "disrup": 6091,
    "courses": 6092,
    "closer": 6093,
    "Change": 6094,
    "pup": 6095,
    "mmen": 6096,
    "struggle": 6097,
    "Sen": 6098,
    "talent": 6099,
    "looked": 6100,
    "gravit": 6101,
    "Mil": 6102,
    "Certain": 6103,
    "mindful": 6104,
    "begins": 6105,
    "Bay": 6106,
    "fits": 6107,
    "wat": 6108,
    "oxygen": 6109,
    "filename": 6110,
    "holes": 6111,
    "performed": 6112,
    "geometry": 6113,
    "hotel": 6114,
    "12": 6115,
    "Information": 6116,
    "smallest": 6117,
    "insul": 6118,
    "istry": 6119,
    "tte": 6120,
    "bis": 6121,
    "ты": 6122,
    "lion": 6123,
    "fruits": 6124,
    "supervised": 6125,
    "severe": 6126,
    "uch": 6127,
    "historic": 6128,
    "researchers": 6129,
    "ifications": 6130,
    "secrets": 6131,
    "whel": 6132,
    "Party": 6133,
    "gged": 6134,
    "reaction": 6135,
    "percentage": 6136,
    "cutting": 6137,
    "birthday": 6138,
    "raw": 6139,
    "Sn": 6140,
    "outline": 6141,
    "ratings": 6142,
    "uns": 6143,
    "voltage": 6144,
    "neh": 6145,
    "remin": 6146,
    "Mc": 6147,
    "Last": 6148,
    "arte": 6149,
    "motivated": 6150,
    "Know": 6151,
    "Work": 6152,
    "asks": 6153,
    "pron": 6154,
    "inch": 6155,
    "investors": 6156,
    "transition": 6157,
    "horizon": 6158,
    "spher": 6159,
    "regarding": 6160,
    "Second": 6161,
    "excell": 6162,
    "breakfast": 6163,
    "finished": 6164,
    "evil": 6165,
    "Place": 6166,
    "circuit": 6167,
    "це": 6168,
    "representing": 6169,
    "Rob": 6170,
    "thousand": 6171,
    "numerous": 6172,
    "eline": 6173,
    "combine": 6174,
    "zur": 6175,
    "iler": 6176,
    "Description": 6177,
    "sively": 6178,
    "ifying": 6179,
    "Alex": 6180,
    "iente": 6181,
    "ífic": 6182,
    "zip": 6183,
    "Loc": 6184,
    "minimize": 6185,
    "hael": 6186,
    "cluster": 6187,
    "Republic": 6188,
    "ckets": 6189,
    "operate": 6190,
    "orbit": 6191,
    "exists": 6192,
    "London": 6193,
    "ashes": 6194,
    "south": 6195,
    "repeat": 6196,
    "swimming": 6197,
    "discovery": 6198,
    "inflation": 6199,
    "Similar": 6200,
    "Services": 6201,
    "asser": 6202,
    "Lat": 6203,
    "Dig": 6204,
    "implementing": 6205,
    "Bun": 6206,
    "hier": 6207,
    "thorough": 6208,
    "figures": 6209,
    "ши": 6210,
    "ação": 6211,
    "ski": 6212,
    "pode": 6213,
    "literature": 6214,
    "trading": 6215,
    "excess": 6216,
    "foreign": 6217,
    "eff": 6218,
    "crete": 6219,
    "philosophical": 6220,
    "issions": 6221,
    "Even": 6222,
    "drawal": 6223,
    "Hill": 6224,
    "hacer": 6225,
    "steam": 6226,
    "kin": 6227,
    "removed": 6228,
    "importante": 6229,
    "intel": 6230,
    "reporting": 6231,
    "burn": 6232,
    "Index": 6233,
    "monster": 6234,
    "incredi": 6235,
    "jac": 6236,
    "Cour": 6237,
    "asyn": 6238,
    "tie": 6239,
    "hh": 6240,
    "avier": 6241,
    "Proje": 6242,
    "inflam": 6243,
    "onome": 6244,
    "Jesus": 6245,
    "unt": 6246,
    "Os": 6247,
    "RA": 6248,
    "vida": 6249,
    "promoting": 6250,
    "earlier": 6251,
    "ail": 6252,
    "hur": 6253,
    "imagine": 6254,
    "icas": 6255,
    "Install": 6256,
    "Map": 6257,
    "religious": 6258,
    "dishes": 6259,
    "enemy": 6260,
    "dictionary": 6261,
    "Response": 6262,
    "football": 6263,
    "duration": 6264,
    "Non": 6265,
    "anas": 6266,
    "eigen": 6267,
    "dedicated": 6268,
    "International": 6269,
    "amazing": 6270,
    "kilometers": 6271,
    "gibt": 6272,
    "minor": 6273,
    "ined": 6274,
    "expectations": 6275,
    "berg": 6276,
    "funds": 6277,
    "intense": 6278,
    "More": 6279,
    "strategic": 6280,
    "garden": 6281,
    "attribute": 6282,
    "iano": 6283,
    "Will": 6284,
    "susp": 6285,
    "basis": 6286,
    "dou": 6287,
    "byte": 6288,
    "Duel": 6289,
    "molecules": 6290,
    "iers": 6291,
    "uk": 6292,
    "Impro": 6293,
    "manipulate": 6294,
    "treated": 6295,
    "Job": 6296,
    "fest": 6297,
    "stick": 6298,
    "wisdom": 6299,
    "ções": 6300,
    "adult": 6301,
    "trou": 6302,
    "goods": 6303,
    "мы": 6304,
    "rum": 6305,
    "overwhel": 6306,
    "diseas": 6307,
    "limits": 6308,
    "lets": 6309,
    "modules": 6310,
    "encryption": 6311,
    "IF": 6312,
    "Vie": 6313,
    "reports": 6314,
    "Docu": 6315,
    "Today": 6316,
    "Swed": 6317,
    "quadratic": 6318,
    "indicates": 6319,
    "cognitive": 6320,
    "alphabet": 6321,
    "Bor": 6322,
    "failure": 6323,
    "Old": 6324,
    "hypothetical": 6325,
    "sters": 6326,
    "evening": 6327,
    "searching": 6328,
    "sold": 6329,
    "damag": 6330,
    "retrieve": 6331,
    "cooked": 6332,
    "impacts": 6333,
    "Dead": 6334,
    "recognized": 6335,
    "adop": 6336,
    "Introduction": 6337,
    "fraud": 6338,
    "alt": 6339,
    "persona": 6340,
    "sizes": 6341,
    "equival": 6342,
    "focusing": 6343,
    "sud": 6344,
    "counting": 6345,
    "liquid": 6346,
    "Size": 6347,
    "restrict": 6348,
    "istical": 6349,
    "adas": 6350,
    "territ": 6351,
    "separated": 6352,
    "grammar": 6353,
    "diseases": 6354,
    "kid": 6355,
    "meets": 6356,
    "мож": 6357,
    "facts": 6358,
    "BC": 6359,
    "texture": 6360,
    "centralized": 6361,
    "tune": 6362,
    "injury": 6363,
    "Initial": 6364,
    "ahl": 6365,
    "enth": 6366,
    "Wel": 6367,
    "ulk": 6368,
    "proposed": 6369,
    "fabric": 6370,
    "prove": 6371,
    "zum": 6372,
    "curve": 6373,
    "FL": 6374,
    "Cloud": 6375,
    "для": 6376,
    "eras": 6377,
    "East": 6378,
    "nutri": 6379,
    "ops": 6380,
    "Gold": 6381,
    "zi": 6382,
    "mmer": 6383,
    "persist": 6384,
    "resolve": 6385,
    "Street": 6386,
    "ergy": 6387,
    "жа": 6388,
    "salad": 6389,
    "LT": 6390,
    "Michael": 6391,
    "honest": 6392,
    "Determine": 6393,
    "accessible": 6394,
    "Count": 6395,
    "vention": 6396,
    "ég": 6397,
    "university": 6398,
    "primar": 6399,
    "usual": 6400,
    "markets": 6401,
    "shoot": 6402,
    "rewrite": 6403,
    "paths": 6404,
    "aber": 6405,
    "ug": 6406,
    "majority": 6407,
    "showing": 6408,
    "MM": 6409,
    "Imag": 6410,
    "Tex": 6411,
    "dent": 6412,
    "Bon": 6413,
    "Stream": 6414,
    "League": 6415,
    "corner": 6416,
    "suffering": 6417,
    "dam": 6418,
    "bricks": 6419,
    "signed": 6420,
    "acid": 6421,
    "kilo": 6422,
    "Korea": 6423,
    "utch": 6424,
    "crystal": 6425,
    "bell": 6426,
    "Anal": 6427,
    "melo": 6428,
    "vy": 6429,
    "monitoring": 6430,
    "respectively": 6431,
    "wet": 6432,
    "Aust": 6433,
    "stores": 6434,
    "delivery": 6435,
    "pine": 6436,
    "worker": 6437,
    "emissions": 6438,
    "stake": 6439,
    "corresponding": 6440,
    "Assistant": 6441,
    "tagon": 6442,
    "enen": 6443,
    "divers": 6444,
    "structured": 6445,
    "stim": 6446,
    "thical": 6447,
    "Evaluate": 6448,
    "Ten": 6449,
    "dura": 6450,
    "William": 6451,
    "login": 6452,
    "smell": 6453,
    "expres": 6454,
    "ambi": 6455,
    "Night": 6456,
    "fitting": 6457,
    "announ": 6458,
    "grass": 6459,
    "mature": 6460,
    "Gar": 6461,
    "ин": 6462,
    "thro": 6463,
    "timestamp": 6464,
    "Eu": 6465,
    "utz": 6466,
    "garbage": 6467,
    "conversations": 6468,
    "datasets": 6469,
    "stret": 6470,
    "Organ": 6471,
    "primarily": 6472,
    "passing": 6473,
    "psychological": 6474,
    "visiting": 6475,
    "DC": 6476,
    "productive": 6477,
    "Viet": 6478,
    "similarity": 6479,
    "possibilities": 6480,
    "England": 6481,
    "obstacles": 6482,
    "gle": 6483,
    "cen": 6484,
    "лю": 6485,
    "teacher": 6486,
    "sta": 6487,
    "sian": 6488,
    "rolling": 6489,
    "Direct": 6490,
    "stove": 6491,
    "FT": 6492,
    "mile": 6493,
    "Unity": 6494,
    "gall": 6495,
    "deeper": 6496,
    "programmed": 6497,
    "whis": 6498,
    "posure": 6499,
    "calm": 6500,
    "kl": 6501,
    "dynamics": 6502,
    "sunlight": 6503,
    "dimensions": 6504,
    "Irel": 6505,
    "Ireland": 6506,
    "tower": 6507,
    "Experi": 6508,
    "effectiveness": 6509,
    "hurt": 6510,
    "painting": 6511,
    "Ih": 6512,
    "esa": 6513,
    "Parser": 6514,
    "electro": 6515,
    "sector": 6516,
    "pleas": 6517,
    "choos": 6518,
    "Grand": 6519,
    "icine": 6520,
    "menu": 6521,
    "Vide": 6522,
    "angers": 6523,
    "resistance": 6524,
    "Word": 6525,
    "которы": 6526,
    "Search": 6527,
    "guard": 6528,
    "Bank": 6529,
    "Explore": 6530,
    "affordable": 6531,
    "category": 6532,
    "пре": 6533,
    "Cu": 6534,
    "MAX": 6535,
    "Qt": 6536,
    "spraybottle": 6537,
    "metronome": 6538,
    "Intel": 6539,
    "Tool": 6540,
    "safely": 6541,
    "Transformer": 6542,
    "emotion": 6543,
    "comparing": 6544,
    "harmon": 6545,
    "Apr": 6546,
    "viet": 6547,
    "disci": 6548,
    "difer": 6549,
    "Fam": 6550,
    "forced": 6551,
    "Water": 6552,
    "buildings": 6553,
    "qué": 6554,
    "SC": 6555,
    "été": 6556,
    "transaction": 6557,
    "perce": 6558,
    "Team": 6559,
    "Discus": 6560,
    "fibonacci": 6561,
    "feels": 6562,
    "synthesis": 6563,
    "Chapter": 6564,
    "retire": 6565,
    "ться": 6566,
    "Method": 6567,
    "medications": 6568,
    "abs": 6569,
    "outer": 6570,
    "huge": 6571,
    "itas": 6572,
    "ém": 6573,
    "Indian": 6574,
    "Manager": 6575,
    "Top": 6576,
    "h1": 6577,
    "essay": 6578,
    "Pac": 6579,
    "guarante": 6580,
    "simulation": 6581,
    "Stat": 6582,
    "forever": 6583,
    "gear": 6584,
    "Care": 6585,
    "Wal": 6586,
    "substance": 6587,
    "Ham": 6588,
    "Legend": 6589,
    "brace": 6590,
    "intu": 6591,
    "gery": 6592,
    "plenty": 6593,
    "arts": 6594,
    "Pu": 6595,
    "elles": 6596,
    "Hier": 6597,
    "controver": 6598,
    "walked": 6599,
    "nore": 6600,
    "Link": 6601,
    "General": 6602,
    "flows": 6603,
    "eleph": 6604,
    "suggested": 6605,
    "decor": 6606,
    "plastic": 6607,
    "func": 6608,
    "snow": 6609,
    "UP": 6610,
    "ECT": 6611,
    "clip": 6612,
    "coded": 6613,
    "grateful": 6614,
    "periods": 6615,
    "exercises": 6616,
    "ored": 6617,
    "Squ": 6618,
    "threats": 6619,
    "bedroom": 6620,
    "profile": 6621,
    "recently": 6622,
    "muscle": 6623,
    "conflicts": 6624,
    "decrease": 6625,
    "Ha": 6626,
    "thread": 6627,
    "clearly": 6628,
    "derivative": 6629,
    "Home": 6630,
    "ela": 6631,
    "args": 6632,
    "db": 6633,
    "нно": 6634,
    "Tim": 6635,
    "haben": 6636,
    "Group": 6637,
    "galaxy": 6638,
    "produces": 6639,
    "Smith": 6640,
    "River": 6641,
    "gradient": 6642,
    "beneficial": 6643,
    "selling": 6644,
    "controlled": 6645,
    "Visual": 6646,
    "expressions": 6647,
    "prediction": 6648,
    "VM": 6649,
    "ief": 6650,
    "traits": 6651,
    "agers": 6652,
    "Jour": 6653,
    "productivity": 6654,
    "March": 6655,
    "kar": 6656,
    "wick": 6657,
    "codes": 6658,
    "acting": 6659,
    "mptions": 6660,
    "espec": 6661,
    "medication": 6662,
    "Leg": 6663,
    "ifies": 6664,
    "Donald": 6665,
    "boss": 6666,
    "Kar": 6667,
    "compli": 6668,
    "ango": 6669,
    "сте": 6670,
    "iffiffiffiff": 6671,
    "transactions": 6672,
    "surrounded": 6673,
    "scientist": 6674,
    "greatly": 6675,
    "poor": 6676,
    "satisfaction": 6677,
    "faith": 6678,
    "repet": 6679,
    "Adv": 6680,
    "meter": 6681,
    "rein": 6682,
    "occup": 6683,
    "01": 6684,
    "diffusion": 6685,
    "daughter": 6686,
    "records": 6687,
    "rated": 6688,
    "commitment": 6689,
    "Level": 6690,
    "controller": 6691,
    "mation": 6692,
    "glich": 6693,
    "hä": 6694,
    "White": 6695,
    "ZE": 6696,
    "oon": 6697,
    "Reader": 6698,
    "countertop": 6699,
    "PG": 6700,
    "defend": 6701,
    "waiting": 6702,
    "executed": 6703,
    "fle": 6704,
    "Examples": 6705,
    "bling": 6706,
    "cycl": 6707,
    "supple": 6708,
    "west": 6709,
    "traveling": 6710,
    "manipulation": 6711,
    "entes": 6712,
    "struggling": 6713,
    "Summar": 6714,
    "tiene": 6715,
    "debt": 6716,
    "Table": 6717,
    "portion": 6718,
    "moons": 6719,
    "grace": 6720,
    "Stud": 6721,
    "startup": 6722,
    "Yo": 6723,
    "withdrawal": 6724,
    "раз": 6725,
    "AME": 6726,
    "aks": 6727,
    "Wie": 6728,
    "RRSRRS": 6729,
    "Bit": 6730,
    "brought": 6731,
    "reminder": 6732,
    "sudden": 6733,
    "occurs": 6734,
    "clou": 6735,
    "statistics": 6736,
    "closely": 6737,
    "inary": 6738,
    "warning": 6739,
    "sees": 6740,
    "sufficient": 6741,
    "criptions": 6742,
    "Intell": 6743,
    "forcement": 6744,
    "seven": 6745,
    "Blo": 6746,
    "maybe": 6747,
    "prefix": 6748,
    "tempor": 6749,
    "explanations": 6750,
    "utiliz": 6751,
    "meditation": 6752,
    "haust": 6753,
    "cups": 6754,
    "Access": 6755,
    "wash": 6756,
    "genre": 6757,
    "vectors": 6758,
    "ALL": 6759,
    "videog": 6760,
    "Israel": 6761,
    "seeing": 6762,
    "academic": 6763,
    "zard": 6764,
    "segu": 6765,
    "suited": 6766,
    "PDF": 6767,
    "Hulk": 6768,
    "shoes": 6769,
    "Einst": 6770,
    "lifesty": 6771,
    "shaped": 6772,
    "emphasizes": 6773,
    "gran": 6774,
    "ejemp": 6775,
    "tore": 6776,
    "robust": 6777,
    "FO": 6778,
    "http": 6779,
    "wed": 6780,
    "probably": 6781,
    "socket": 6782,
    "estimated": 6783,
    "administ": 6784,
    "abol": 6785,
    "Book": 6786,
    "fusion": 6787,
    "spark": 6788,
    "artists": 6789,
    "elling": 6790,
    "romantic": 6791,
    "rian": 6792,
    "bond": 6793,
    "proud": 6794,
    "encoura": 6795,
    "George": 6796,
    "PH": 6797,
    "swim": 6798,
    "hex": 6799,
    "interview": 6800,
    "schools": 6801,
    "cleaning": 6802,
    "housing": 6803,
    "Review": 6804,
    "Aus": 6805,
    "jed": 6806,
    "Allow": 6807,
    "bere": 6808,
    "Eli": 6809,
    "interpreted": 6810,
    "ingu": 6811,
    "Element": 6812,
    "Syn": 6813,
    "endo": 6814,
    "solved": 6815,
    "scheme": 6816,
    "Bi": 6817,
    "KI": 6818,
    "communic": 6819,
    "buf": 6820,
    "dice": 6821,
    "Perform": 6822,
    "hosp": 6823,
    "Tensor": 6824,
    "án": 6825,
    "digo": 6826,
    "mixed": 6827,
    "formal": 6828,
    "neighborhood": 6829,
    "astro": 6830,
    "specialized": 6831,
    "corrup": 6832,
    "regression": 6833,
    "dependent": 6834,
    "Convert": 6835,
    "Church": 6836,
    "Fizz": 6837,
    "ields": 6838,
    "KE": 6839,
    "gli": 6840,
    "excellent": 6841,
    "Ali": 6842,
    "rol": 6843,
    "presentation": 6844,
    "activation": 6845,
    "ется": 6846,
    "minimal": 6847,
    "soul": 6848,
    "Card": 6849,
    "円の": 6850,
    "Arch": 6851,
    "atile": 6852,
    "cracy": 6853,
    "faced": 6854,
    "staff": 6855,
    "auth": 6856,
    "quier": 6857,
    "understood": 6858,
    "bike": 6859,
    "CSS": 6860,
    "neces": 6861,
    "keeps": 6862,
    "April": 6863,
    "Soviet": 6864,
    "happens": 6865,
    "Ku": 6866,
    "scenarios": 6867,
    "Vietnam": 6868,
    "married": 6869,
    "A1": 6870,
    "employment": 6871,
    "knowing": 6872,
    "listed": 6873,
    "Berlin": 6874,
    "metic": 6875,
    "SM": 6876,
    "poll": 6877,
    "Dies": 6878,
    "Appl": 6879,
    "Hub": 6880,
    "lichen": 6881,
    "compatible": 6882,
    "forests": 6883,
    "determination": 6884,
    "faire": 6885,
    "onaut": 6886,
    "interaction": 6887,
    "cs": 6888,
    "popularity": 6889,
    "aper": 6890,
    "optimized": 6891,
    "collap": 6892,
    "baby": 6893,
    "discipl": 6894,
    "multiplication": 6895,
    "electrical": 6896,
    "Greek": 6897,
    "blockchain": 6898,
    "tric": 6899,
    "NBA": 6900,
    "lass": 6901,
    "ски": 6902,
    "Brand": 6903,
    "pload": 6904,
    "url": 6905,
    "sium": 6906,
    "Promp": 6907,
    "NU": 6908,
    "Users": 6909,
    "shirts": 6910,
    "basin": 6911,
    "割引": 6912,
    "iding": 6913,
    "Spain": 6914,
    "ened": 6915,
    "ça": 6916,
    "Express": 6917,
    "demonstrate": 6918,
    "trouble": 6919,
    "concern": 6920,
    "pix": 6921,
    "Pass": 6922,
    "citizens": 6923,
    "symbols": 6924,
    "mountains": 6925,
    "scores": 6926,
    "Cut": 6927,
    "bic": 6928,
    "warri": 6929,
    "aft": 6930,
    "stuff": 6931,
    "PR": 6932,
    "гу": 6933,
    "pend": 6934,
    "Crystal": 6935,
    "дру": 6936,
    "Mens": 6937,
    "ierung": 6938,
    "Hu": 6939,
    "Febr": 6940,
    "Italy": 6941,
    "movements": 6942,
    "soldi": 6943,
    "gained": 6944,
    "dense": 6945,
    "YPE": 6946,
    "Torch": 6947,
    "typical": 6948,
    "aches": 6949,
    "conv": 6950,
    "Like": 6951,
    "cow": 6952,
    "Address": 6953,
    "noon": 6954,
    "otic": 6955,
    "isode": 6956,
    "Western": 6957,
    "Johnson": 6958,
    "assumptions": 6959,
    "ancing": 6960,
    "recursive": 6961,
    "oir": 6962,
    "Update": 6963,
    "III": 6964,
    "Option": 6965,
    "awn": 6966,
    "fiber": 6967,
    "champion": 6968,
    "uten": 6969,
    "Unter": 6970,
    "Africa": 6971,
    "civilization": 6972,
    "classical": 6973,
    "legend": 6974,
    "Large": 6975,
    "castle": 6976,
    "não": 6977,
    "YouTube": 6978,
    "Connect": 6979,
    "mult": 6980,
    "tired": 6981,
    "Fox": 6982,
    "cart": 6983,
    "angles": 6984,
    "tale": 6985,
    "basketball": 6986,
    "NAME": 6987,
    "siste": 6988,
    "bbbb": 6989,
    "Box": 6990,
    "fah": 6991,
    "ту": 6992,
    "SP": 6993,
    "Den": 6994,
    "Renew": 6995,
    "Technology": 6996,
    "trait": 6997,
    "phenomen": 6998,
    "routes": 6999,
    "engines": 7000,
    "achieving": 7001,
    "16": 7002,
    "annual": 7003,
    "Mater": 7004,
    "hall": 7005,
    "studying": 7006,
    "hiking": 7007,
    "datos": 7008,
    "lunch": 7009,
    "sumes": 7010,
    "therapy": 7011,
    "confirm": 7012,
    "grab": 7013,
    "reputation": 7014,
    "Match": 7015,
    "Azure": 7016,
    "CON": 7017,
    "GPUs": 7018,
    "February": 7019,
    "esto": 7020,
    "deviation": 7021,
    "Musk": 7022,
    "Network": 7023,
    "frequently": 7024,
    "spring": 7025,
    "virus": 7026,
    "toff": 7027,
    "logy": 7028,
    "Battle": 7029,
    "Budd": 7030,
    "league": 7031,
    "alb": 7032,
    "compassion": 7033,
    "Tower": 7034,
    "Remove": 7035,
    "vacation": 7036,
    "Cup": 7037,
    "treas": 7038,
    "Có": 7039,
    "procedures": 7040,
    "View": 7041,
    "fell": 7042,
    "protagon": 7043,
    "Array": 7044,
    "pread": 7045,
    "shopping": 7046,
    "servation": 7047,
    "Maria": 7048,
    "norm": 7049,
    "tuning": 7050,
    "mystery": 7051,
    "educational": 7052,
    "Break": 7053,
    "enum": 7054,
    "laptop": 7055,
    "trick": 7056,
    "repeated": 7057,
    "societ": 7058,
    "berry": 7059,
    "claims": 7060,
    "bled": 7061,
    "fif": 7062,
    "linked": 7063,
    "expressed": 7064,
    "destru": 7065,
    "suppor": 7066,
    "Civ": 7067,
    "MySQL": 7068,
    "reached": 7069,
    "sé": 7070,
    "cope": 7071,
    "patients": 7072,
    "cere": 7073,
    "beer": 7074,
    "Pok": 7075,
    "Tile": 7076,
    "mistake": 7077,
    "wheel": 7078,
    "dium": 7079,
    "Memory": 7080,
    "nish": 7081,
    "vote": 7082,
    "embeddings": 7083,
    "exhi": 7084,
    "promis": 7085,
    "gravitational": 7086,
    "ths": 7087,
    "doors": 7088,
    "iller": 7089,
    "famil": 7090,
    "calling": 7091,
    "influential": 7092,
    "Incl": 7093,
    "mirror": 7094,
    "generator": 7095,
    "agric": 7096,
    "lifestyle": 7097,
    "Begin": 7098,
    "tap": 7099,
    "ii": 7100,
    "tener": 7101,
    "Mex": 7102,
    "xyz": 7103,
    "Elo": 7104,
    "Energy": 7105,
    "berries": 7106,
    "headings": 7107,
    "Hollow": 7108,
    "fus": 7109,
    "iser": 7110,
    "occurred": 7111,
    "Paul": 7112,
    "guitar": 7113,
    "studied": 7114,
    "winning": 7115,
    "Material": 7116,
    "бу": 7117,
    "paid": 7118,
    "assessment": 7119,
    "sos": 7120,
    "tested": 7121,
    "iert": 7122,
    "pil": 7123,
    "gence": 7124,
    "department": 7125,
    "éta": 7126,
    "SO": 7127,
    "almost": 7128,
    "Filter": 7129,
    "A3": 7130,
    "hook": 7131,
    "triangle": 7132,
    "Programm": 7133,
    "sys": 7134,
    "narrative": 7135,
    "stuck": 7136,
    "lightweight": 7137,
    "predictable": 7138,
    "uler": 7139,
    "grant": 7140,
    "stir": 7141,
    "LM": 7142,
    "cuis": 7143,
    "Bal": 7144,
    "clin": 7145,
    "Br": 7146,
    "ptic": 7147,
    "amen": 7148,
    "bodies": 7149,
    "nightlife": 7150,
    "factorial": 7151,
    "merge": 7152,
    "Bill": 7153,
    "agen": 7154,
    "xit": 7155,
    "tank": 7156,
    "它它": 7157,
    "quel": 7158,
    "recovery": 7159,
    "architect": 7160,
    "rict": 7161,
    "lift": 7162,
    "wichtig": 7163,
    "iterate": 7164,
    "lots": 7165,
    "seat": 7166,
    "snippet": 7167,
    "tomorrow": 7168,
    "colorful": 7169,
    "CD": 7170,
    "Einstein": 7171,
    "displays": 7172,
    "funding": 7173,
    "Christian": 7174,
    "info": 7175,
    "convey": 7176,
    "mbly": 7177,
    "Customer": 7178,
    "HTTP": 7179,
    "exit": 7180,
    "soda": 7181,
    "television": 7182,
    "Instructions": 7183,
    "Save": 7184,
    "exposure": 7185,
    "Angel": 7186,
    "weapon": 7187,
    "Washing": 7188,
    "iste": 7189,
    "gone": 7190,
    "Strate": 7191,
    "reported": 7192,
    "propag": 7193,
    "ème": 7194,
    "diam": 7195,
    "Bed": 7196,
    "cratic": 7197,
    "Copy": 7198,
    "grew": 7199,
    "chant": 7200,
    "scr": 7201,
    "remind": 7202,
    "replacement": 7203,
    "Nat": 7204,
    "curious": 7205,
    "worry": 7206,
    "motivations": 7207,
    "wings": 7208,
    "Current": 7209,
    "flexibility": 7210,
    "entertainment": 7211,
    "breed": 7212,
    "hil": 7213,
    "zos": 7214,
    "ías": 7215,
    "cias": 7216,
    "Gal": 7217,
    "reviews": 7218,
    "Scal": 7219,
    "samp": 7220,
    "cción": 7221,
    "Child": 7222,
    "Ba": 7223,
    "tip": 7224,
    "Bang": 7225,
    "chi": 7226,
    "Ther": 7227,
    "dimension": 7228,
    "зу": 7229,
    "Rome": 7230,
    "consideration": 7231,
    "Flow": 7232,
    "grande": 7233,
    "parser": 7234,
    "however": 7235,
    "placing": 7236,
    "eta": 7237,
    "technological": 7238,
    "avoiding": 7239,
    "compression": 7240,
    "Ni": 7241,
    "dragon": 7242,
    "emergency": 7243,
    "tember": 7244,
    "staying": 7245,
    "Altern": 7246,
    "Proble": 7247,
    "Washington": 7248,
    "ます": 7249,
    "ún": 7250,
    "walks": 7251,
    "surpr": 7252,
    "coast": 7253,
    "unity": 7254,
    "elimin": 7255,
    "tier": 7256,
    "ßen": 7257,
    "Brexit": 7258,
    "Га": 7259,
    "fought": 7260,
    "san": 7261,
    "manipul": 7262,
    "longest": 7263,
    "flowers": 7264,
    "phenomenon": 7265,
    "workout": 7266,
    "deployment": 7267,
    "cada": 7268,
    "lemon": 7269,
    "Certainly": 7270,
    "drugs": 7271,
    "Most": 7272,
    "rd": 7273,
    "uno": 7274,
    "qualities": 7275,
    "processor": 7276,
    "aircraft": 7277,
    "Minister": 7278,
    "memorable": 7279,
    "integrated": 7280,
    "humidity": 7281,
    "combinations": 7282,
    "Page": 7283,
    "entrepre": 7284,
    "zie": 7285,
    "Renewable": 7286,
    "relativity": 7287,
    "gap": 7288,
    "rely": 7289,
    "reposit": 7290,
    "caught": 7291,
    "couple": 7292,
    "Should": 7293,
    "crew": 7294,
    "ience": 7295,
    "kids": 7296,
    "Enterprise": 7297,
    "mask": 7298,
    "extr": 7299,
    "bought": 7300,
    "September": 7301,
    "deck": 7302,
    "reflects": 7303,
    "estate": 7304,
    "tourna": 7305,
    "aked": 7306,
    "cla": 7307,
    "nt": 7308,
    "authorized": 7309,
    "Fut": 7310,
    "PID": 7311,
    "ivot": 7312,
    "Pack": 7313,
    "compound": 7314,
    "honey": 7315,
    "stroke": 7316,
    "gene": 7317,
    "chatbots": 7318,
    "tane": 7319,
    "dedication": 7320,
    "decimal": 7321,
    "distract": 7322,
    "bble": 7323,
    "mento": 7324,
    "perior": 7325,
    "Jane": 7326,
    "Da": 7327,
    "embar": 7328,
    "pets": 7329,
    "oned": 7330,
    "darkness": 7331,
    "descriptions": 7332,
    "Demo": 7333,
    "MD": 7334,
    "rac": 7335,
    "hors": 7336,
    "infect": 7337,
    "evaluating": 7338,
    "immers": 7339,
    "winter": 7340,
    "CEO": 7341,
    "dresses": 7342,
    "hin": 7343,
    "trusted": 7344,
    "Van": 7345,
    "committed": 7346,
    "scri": 7347,
    "paste": 7348,
    "plotlib": 7349,
    "itis": 7350,
    "Julius": 7351,
    "Document": 7352,
    "uid": 7353,
    "accepted": 7354,
    "angular": 7355,
    "isse": 7356,
    "ASC": 7357,
    "swap": 7358,
    "пи": 7359,
    "statistical": 7360,
    "Anim": 7361,
    "Util": 7362,
    "playful": 7363,
    "aliens": 7364,
    "Plu": 7365,
    "Phys": 7366,
    "founded": 7367,
    "keyword": 7368,
    "са": 7369,
    "deeply": 7370,
    "analytics": 7371,
    "Octo": 7372,
    "Cost": 7373,
    "negoti": 7374,
    "arith": 7375,
    "mac": 7376,
    "agents": 7377,
    "successfully": 7378,
    "wine": 7379,
    "pygame": 7380,
    "reasonable": 7381,
    "odd": 7382,
    "Task": 7383,
    "servername": 7384,
    "servernamexyz": 7385,
    "equivalent": 7386,
    "fitness": 7387,
    "reaching": 7388,
    "banks": 7389,
    "frameworks": 7390,
    "friendship": 7391,
    "rolls": 7392,
    "applying": 7393,
    "heading": 7394,
    "Fur": 7395,
    "empathy": 7396,
    "beings": 7397,
    "orm": 7398,
    "expansion": 7399,
    "adox": 7400,
    "juice": 7401,
    "Excel": 7402,
    "lan": 7403,
    "ambién": 7404,
    "ancy": 7405,
    "randomly": 7406,
    "assigned": 7407,
    "saving": 7408,
    "algebra": 7409,
    "exhaust": 7410,
    "angry": 7411,
    "Jer": 7412,
    "concerned": 7413,
    "ferent": 7414,
    "leur": 7415,
    "applic": 7416,
    "Nav": 7417,
    "esse": 7418,
    "ccer": 7419,
    "crop": 7420,
    "soll": 7421,
    "Convers": 7422,
    "mov": 7423,
    "tige": 7424,
    "Clo": 7425,
    "removing": 7426,
    "absolute": 7427,
    "automate": 7428,
    "identified": 7429,
    "ensions": 7430,
    "Hz": 7431,
    "participants": 7432,
    "icking": 7433,
    "campo": 7434,
    "vocal": 7435,
    "industrial": 7436,
    "categories": 7437,
    "Pand": 7438,
    "introduce": 7439,
    "Jose": 7440,
    "July": 7441,
    "img": 7442,
    "voor": 7443,
    "agon": 7444,
    "taller": 7445,
    "sg": 7446,
    "Queen": 7447,
    "slo": 7448,
    "aten": 7449,
    "Video": 7450,
    "elif": 7451,
    "delete": 7452,
    "vember": 7453,
    "leaders": 7454,
    "punk": 7455,
    "diameter": 7456,
    "ejemplo": 7457,
    "initi": 7458,
    "encoding": 7459,
    "immune": 7460,
    "repair": 7461,
    "Thanks": 7462,
    "vre": 7463,
    "obj": 7464,
    "mini": 7465,
    "geben": 7466,
    "musical": 7467,
    "protagonist": 7468,
    "NET": 7469,
    "shirt": 7470,
    "burner": 7471,
    "sinkbasin": 7472,
    "guest": 7473,
    "Base": 7474,
    "ching": 7475,
    "crisis": 7476,
    "happening": 7477,
    "distances": 7478,
    "Tree": 7479,
    "storing": 7480,
    "flying": 7481,
    "VI": 7482,
    "Intelligence": 7483,
    "margin": 7484,
    "opol": 7485,
    "corn": 7486,
    "physically": 7487,
    "batt": 7488,
    "woodchuck": 7489,
    "texto": 7490,
    "instit": 7491,
    "vocab": 7492,
    "mejor": 7493,
    "Indonesia": 7494,
    "env": 7495,
    "noun": 7496,
    "peu": 7497,
    "chapter": 7498,
    "nucle": 7499,
    "cend": 7500,
    "isch": 7501,
    "atomic": 7502,
    "calculates": 7503,
    "Full": 7504,
    "attractions": 7505,
    "drawn": 7506,
    "unlikely": 7507,
    "succeed": 7508,
    "rial": 7509,
    "dients": 7510,
    "Down": 7511,
    "ranking": 7512,
    "radiation": 7513,
    "covering": 7514,
    "pus": 7515,
    "Leon": 7516,
    "льно": 7517,
    "backs": 7518,
    "Pour": 7519,
    "Victor": 7520,
    "aciones": 7521,
    "Wo": 7522,
    "Flask": 7523,
    "court": 7524,
    "principle": 7525,
    "сво": 7526,
    "BERT": 7527,
    "simultane": 7528,
    "aider": 7529,
    "choosing": 7530,
    "Hola": 7531,
    "casting": 7532,
    "eval": 7533,
    "controversi": 7534,
    "discussion": 7535,
    "politics": 7536,
    "itement": 7537,
    "cisco": 7538,
    "iday": 7539,
    "discussing": 7540,
    "criminal": 7541,
    "theoretical": 7542,
    "segment": 7543,
    "notation": 7544,
    "plain": 7545,
    "Discuss": 7546,
    "references": 7547,
    "MP": 7548,
    "trend": 7549,
    "comme": 7550,
    "Import": 7551,
    "fortun": 7552,
    "verify": 7553,
    "orn": 7554,
    "Wi": 7555,
    "momentum": 7556,
    "intensity": 7557,
    "contexts": 7558,
    "humorous": 7559,
    "composition": 7560,
    "RT": 7561,
    "validation": 7562,
    "corporate": 7563,
    "appointment": 7564,
    "Ihnen": 7565,
    "calories": 7566,
    "Players": 7567,
    "giant": 7568,
    "taxes": 7569,
    "simulate": 7570,
    "aven": 7571,
    "trigger": 7572,
    "disk": 7573,
    "stakeholders": 7574,
    "turtle": 7575,
    "placement": 7576,
    "attractive": 7577,
    "improvements": 7578,
    "bla": 7579,
    "Juan": 7580,
    "ala": 7581,
    "Dev": 7582,
    "espa": 7583,
    "NC": 7584,
    "blind": 7585,
    "streets": 7586,
    "Neural": 7587,
    "bench": 7588,
    "neck": 7589,
    "shops": 7590,
    "composed": 7591,
    "preference": 7592,
    "specul": 7593,
    "noticed": 7594,
    "bigger": 7595,
    "adventures": 7596,
    "Lou": 7597,
    "tho": 7598,
    "responsibilities": 7599,
    "frames": 7600,
    "arrived": 7601,
    "girls": 7602,
    "cion": 7603,
    "upload": 7604,
    "Digital": 7605,
    "Das": 7606,
    "Shad": 7607,
    "YY": 7608,
    "Info": 7609,
    "Encourage": 7610,
    "Egy": 7611,
    "peaceful": 7612,
    "destroyed": 7613,
    "computation": 7614,
    "astronaut": 7615,
    "OF": 7616,
    "indicating": 7617,
    "therefore": 7618,
    "icted": 7619,
    "Engineering": 7620,
    "genetic": 7621,
    "CNN": 7622,
    "consuming": 7623,
    "MAT": 7624,
    "Core": 7625,
    "arrange": 7626,
    "vend": 7627,
    "Rol": 7628,
    "Ag": 7629,
    "izable": 7630,
    "Sty": 7631,
    "Cla": 7632,
    "elev": 7633,
    "biological": 7634,
    "Regular": 7635,
    "derived": 7636,
    "ictory": 7637,
    "independence": 7638,
    "Put": 7639,
    "propos": 7640,
    "findings": 7641,
    "ithub": 7642,
    "Hyper": 7643,
    "Fa": 7644,
    "diabet": 7645,
    "xide": 7646,
    "wider": 7647,
    "Korean": 7648,
    "desires": 7649,
    "basics": 7650,
    "phenomena": 7651,
    "dollars": 7652,
    "jection": 7653,
    "ktion": 7654,
    "initially": 7655,
    "GD": 7656,
    "shortest": 7657,
    "involving": 7658,
    "Del": 7659,
    "reshold": 7660,
    "todo": 7661,
    "highlights": 7662,
    "Dog": 7663,
    "Program": 7664,
    "Haw": 7665,
    "tiny": 7666,
    "illy": 7667,
    "substitute": 7668,
    "Middle": 7669,
    "rote": 7670,
    "kne": 7671,
    "mens": 7672,
    "rown": 7673,
    "UNT": 7674,
    "Spring": 7675,
    "See": 7676,
    "Ball": 7677,
    "precise": 7678,
    "definitely": 7679,
    "fib": 7680,
    "drinking": 7681,
    "lights": 7682,
    "Fort": 7683,
    "caus": 7684,
    "generative": 7685,
    "zt": 7686,
    "Bridge": 7687,
    "otherwise": 7688,
    "eager": 7689,
    "Common": 7690,
    "federal": 7691,
    "específic": 7692,
    "directed": 7693,
    "Travel": 7694,
    "Control": 7695,
    "squares": 7696,
    "printed": 7697,
    "Forest": 7698,
    "ERE": 7699,
    "enz": 7700,
    "ART": 7701,
    "sym": 7702,
    "heavier": 7703,
    "fet": 7704,
    "retirement": 7705,
    "Menschen": 7706,
    "dal": 7707,
    "eln": 7708,
    "chunk": 7709,
    "Daten": 7710,
    "directions": 7711,
    "predic": 7712,
    "flip": 7713,
    "puts": 7714,
    "behaviors": 7715,
    "Pop": 7716,
    "managed": 7717,
    "outdoor": 7718,
    "Press": 7719,
    "chaos": 7720,
    "Frid": 7721,
    "tomatoes": 7722,
    "fulfillment": 7723,
    "rif": 7724,
    "sudo": 7725,
    "shapes": 7726,
    "Prote": 7727,
    "itiner": 7728,
    "October": 7729,
    "panel": 7730,
    "EC": 7731,
    "drawing": 7732,
    "DU": 7733,
    "automation": 7734,
    "Dy": 7735,
    "Wenn": 7736,
    "soccer": 7737,
    "pdf": 7738,
    "pivot": 7739,
    "Bow": 7740,
    "LOC": 7741,
    "ют": 7742,
    "ACT": 7743,
    "Appro": 7744,
    "Vers": 7745,
    "Ever": 7746,
    "rocket": 7747,
    "strike": 7748,
    "enjoyed": 7749,
    "oo": 7750,
    "Para": 7751,
    "mph": 7752,
    "pig": 7753,
    "cores": 7754,
    "kn": 7755,
    "families": 7756,
    "mom": 7757,
    "setup": 7758,
    "Collect": 7759,
    "aid": 7760,
    "isn": 7761,
    "puesta": 7762,
    "networking": 7763,
    "tles": 7764,
    "religion": 7765,
    "observed": 7766,
    "blow": 7767,
    "uda": 7768,
    "ahr": 7769,
    "exceed": 7770,
    "пра": 7771,
    "penal": 7772,
    "yogurt": 7773,
    "electrons": 7774,
    "delimit": 7775,
    "mond": 7776,
    "Wait": 7777,
    "incess": 7778,
    "apped": 7779,
    "recall": 7780,
    "operators": 7781,
    "sua": 7782,
    "ib": 7783,
    "euro": 7784,
    "fier": 7785,
    "storm": 7786,
    "fulfilling": 7787,
    "passeng": 7788,
    "accordingly": 7789,
    "tä": 7790,
    "vail": 7791,
    "motivation": 7792,
    "previously": 7793,
    "linux": 7794,
    "Island": 7795,
    "Thought": 7796,
    "pricing": 7797,
    "August": 7798,
    "cuisine": 7799,
    "fees": 7800,
    "Self": 7801,
    "tallest": 7802,
    "gang": 7803,
    "truck": 7804,
    "sword": 7805,
    "ticks": 7806,
    "brew": 7807,
    "MB": 7808,
    "GitHub": 7809,
    "Eine": 7810,
    "zess": 7811,
    "atever": 7812,
    "glad": 7813,
    "Arab": 7814,
    "aims": 7815,
    "nutr": 7816,
    "hund": 7817,
    "experiments": 7818,
    "Scient": 7819,
    "anto": 7820,
    "ville": 7821,
    "November": 7822,
    "controversial": 7823,
    "urally": 7824,
    "designs": 7825,
    "Central": 7826,
    "observe": 7827,
    "terror": 7828,
    "md": 7829,
    "Francisco": 7830,
    "Produ": 7831,
    "originally": 7832,
    "Monitor": 7833,
    "ícul": 7834,
    "ani": 7835,
    "functioning": 7836,
    "pient": 7837,
    "MT": 7838,
    "rop": 7839,
    "Civil": 7840,
    "inks": 7841,
    "zione": 7842,
    "tolerance": 7843,
    "girlfriend": 7844,
    "eld": 7845,
    "caly": 7846,
    "stones": 7847,
    "ista": 7848,
    "était": 7849,
    "drivers": 7850,
    "су": 7851,
    "attr": 7852,
    "wins": 7853,
    "Widget": 7854,
    "beacons": 7855,
    "ambda": 7856,
    "domest": 7857,
    "ASCII": 7858,
    "cuenta": 7859,
    "shel": 7860,
    "ivos": 7861,
    "infinite": 7862,
    "sized": 7863,
    "shr": 7864,
    "grown": 7865,
    "sigu": 7866,
    "corre": 7867,
    "reaches": 7868,
    "ultural": 7869,
    "XML": 7870,
    "Vir": 7871,
    "regulatory": 7872,
    "assumes": 7873,
    "harder": 7874,
    "Score": 7875,
    "reduced": 7876,
    "Tag": 7877,
    "ette": 7878,
    "tutorial": 7879,
    "communicating": 7880,
    "rod": 7881,
    "ück": 7882,
    "metaphor": 7883,
    "eleg": 7884,
    "Astr": 7885,
    "金額": 7886,
    "vulnerable": 7887,
    "boost": 7888,
    "bases": 7889,
    "rhyth": 7890,
    "Rich": 7891,
    "Hall": 7892,
    "nú": 7893,
    "simplify": 7894,
    "fascinating": 7895,
    "wand": 7896,
    "rival": 7897,
    "Sus": 7898,
    "Revolution": 7899,
    "eaten": 7900,
    "contrad": 7901,
    "puedo": 7902,
    "mant": 7903,
    "inappropriate": 7904,
    "HR": 7905,
    "filters": 7906,
    "occasion": 7907,
    "voir": 7908,
    "tai": 7909,
    "puzzles": 7910,
    "nutrients": 7911,
    "Repe": 7912,
    "organic": 7913,
    "Vor": 7914,
    "mp4": 7915,
    "opened": 7916,
    "unar": 7917,
    "ester": 7918,
    "defense": 7919,
    "offered": 7920,
    "college": 7921,
    "despite": 7922,
    "golden": 7923,
    "acer": 7924,
    "usu": 7925,
    "breathing": 7926,
    "Imagine": 7927,
    "pin": 7928,
    "USA": 7929,
    "measuring": 7930,
    "paying": 7931,
    "Conf": 7932,
    "insight": 7933,
    "whose": 7934,
    "Move": 7935,
    "sending": 7936,
    "guy": 7937,
    "Instruction": 7938,
    "riger": 7939,
    "biggest": 7940,
    "uous": 7941,
    "solo": 7942,
    "surprise": 7943,
    "rome": 7944,
    "significance": 7945,
    "Mario": 7946,
    "refresh": 7947,
    "Position": 7948,
    "loops": 7949,
    "bananas": 7950,
    "zial": 7951,
    "Газе": 7952,
    "fewer": 7953,
    "voting": 7954,
    "welcome": 7955,
    "Translate": 7956,
    "fare": 7957,
    "esar": 7958,
    "referred": 7959,
    "verschied": 7960,
    "Airport": 7961,
    "unethical": 7962,
    "IO": 7963,
    "anged": 7964,
    "boo": 7965,
    "ounder": 7966,
    "swe": 7967,
    "omas": 7968,
    "fake": 7969,
    "determining": 7970,
    "bridge": 7971,
    "SET": 7972,
    "yr": 7973,
    "intention": 7974,
    "itage": 7975,
    "ischen": 7976,
    "feat": 7977,
    "perman": 7978,
    "Matrix": 7979,
    "Gard": 7980,
    "authentic": 7981,
    "Tal": 7982,
    "passage": 7983,
    "Internet": 7984,
    "gons": 7985,
    "Format": 7986,
    "bars": 7987,
    "Fall": 7988,
    "sender": 7989,
    "Pun": 7990,
    "nue": 7991,
    "inflammation": 7992,
    "Expression": 7993,
    "LIN": 7994,
    "EFF": 7995,
    "bias": 7996,
    "Order": 7997,
    "beaches": 7998,
    "relations": 7999,
    "hide": 8000,
    "pursue": 8001,
    "heavily": 8002,
    "Analysis": 8003,
    "Elon": 8004,
    "engaged": 8005,
    "GUI": 8006,
    "audiences": 8007,
    "pretty": 8008,
    "canvas": 8009,
    "Rock": 8010,
    "mundo": 8011,
    "nose": 8012,
    "chopped": 8013,
    "glu": 8014,
    "compile": 8015,
    "Replace": 8016,
    "installation": 8017,
    "omen": 8018,
    "tub": 8019,
    "itinerary": 8020,
    "invo": 8021,
    "Jew": 8022,
    "fraction": 8023,
    "crum": 8024,
    "Scot": 8025,
    "western": 8026,
    "glow": 8027,
    "Deutsch": 8028,
    "Creat": 8029,
    "phase": 8030,
    "Las": 8031,
    "anc": 8032,
    "slide": 8033,
    "Entw": 8034,
    "matplotlib": 8035,
    "nehmen": 8036,
    "concentration": 8037,
    "ière": 8038,
    "lever": 8039,
    "injuries": 8040,
    "muscles": 8041,
    "información": 8042,
    "lessons": 8043,
    "informative": 8044,
    "Display": 8045,
    "feine": 8046,
    "edges": 8047,
    "satell": 8048,
    "dangers": 8049,
    "hospital": 8050,
    "mero": 8051,
    "css": 8052,
    "ola": 8053,
    "photos": 8054,
    "Apache": 8055,
    "rant": 8056,
    "tack": 8057,
    "reject": 8058,
    "holiday": 8059,
    "Texas": 8060,
    "né": 8061,
    "vos": 8062,
    "mates": 8063,
    "15": 8064,
    "instances": 8065,
    "años": 8066,
    "wrote": 8067,
    "protected": 8068,
    "20": 8069,
    "asp": 8070,
    "terrain": 8071,
    "Bio": 8072,
    "щи": 8073,
    "loan": 8074,
    "inference": 8075,
    "fund": 8076,
    "xml": 8077,
    "sprints": 8078,
    "EFFECT": 8079,
    "versatile": 8080,
    "captured": 8081,
    "perception": 8082,
    "losing": 8083,
    "COVID": 8084,
    "speeds": 8085,
    "poch": 8086,
    "cation": 8087,
    "inspire": 8088,
    "infinity": 8089,
    "selecting": 8090,
    "consumer": 8091,
    "agreed": 8092,
    "marked": 8093,
    "farm": 8094,
    "Clar": 8095,
    "institutions": 8096,
    "Asia": 8097,
    "Hot": 8098,
    "Anna": 8099,
    "Eld": 8100,
    "addresses": 8101,
    "advertising": 8102,
    "éné": 8103,
    "Policy": 8104,
    "Glo": 8105,
    "Half": 8106,
    "Mind": 8107,
    "decides": 8108,
    "или": 8109,
    "TE": 8110,
    "зна": 8111,
    "поль": 8112,
    "Rever": 8113,
    "certific": 8114,
    "towel": 8115,
    "Gover": 8116,
    "Spec": 8117,
    "PyTorch": 8118,
    "iro": 8119,
    "aligned": 8120,
    "spat": 8121,
    "senior": 8122,
    "üh": 8123,
    "Development": 8124,
    "failed": 8125,
    "Summarize": 8126,
    "keting": 8127,
    "cked": 8128,
    "monsters": 8129,
    "flavors": 8130,
    "tennis": 8131,
    "garlic": 8132,
    "temporary": 8133,
    "insect": 8134,
    "iche": 8135,
    "Join": 8136,
    "teeth": 8137,
    "ym": 8138,
    "posts": 8139,
    "threads": 8140,
    "infer": 8141,
    "Request": 8142,
    "Palest": 8143,
    "Suc": 8144,
    "signature": 8145,
    "ONE": 8146,
    "hö": 8147,
    "uint": 8148,
    "notable": 8149,
    "Lord": 8150,
    "habits": 8151,
    "éren": 8152,
    "computational": 8153,
    "greet": 8154,
    "Result": 8155,
    "Kon": 8156,
    "eling": 8157,
    "Edu": 8158,
    "fork": 8159,
    "landing": 8160,
    "lighting": 8161,
    "Lack": 8162,
    "CA": 8163,
    "considerations": 8164,
    "extensive": 8165,
    "logo": 8166,
    "muy": 8167,
    "ourselves": 8168,
    "ABLE": 8169,
    "tribut": 8170,
    "pla": 8171,
    "winner": 8172,
    "RNA": 8173,
    "Personal": 8174,
    "Corpor": 8175,
    "configure": 8176,
    "apocaly": 8177,
    "debe": 8178,
    "isters": 8179,
    "avoir": 8180,
    "aby": 8181,
    "L2": 8182,
    "requirement": 8183,
    "cré": 8184,
    "endpoint": 8185,
    "Hen": 8186,
    "receiving": 8187,
    "coordinates": 8188,
    "ichen": 8189,
    "Row": 8190,
    "pond": 8191,
    "nil": 8192,
    "Geom": 8193,
    "Fu": 8194,
    "lazy": 8195,
    "actor": 8196,
    "clouds": 8197,
    "F1": 8198,
    "rising": 8199,
    "profound": 8200,
    "Draw": 8201,
    "exposed": 8202,
    "Help": 8203,
    "mapping": 8204,
    "sustainability": 8205,
    "hus": 8206,
    "analyst": 8207,
    "elephant": 8208,
    "presented": 8209,
    "elig": 8210,
    "iconic": 8211,
    "impressive": 8212,
    "album": 8213,
    "Token": 8214,
    "combines": 8215,
    "EV": 8216,
    "ologies": 8217,
    "lé": 8218,
    "hypothesis": 8219,
    "fonction": 8220,
    "flash": 8221,
    "itivity": 8222,
    "slice": 8223,
    "alo": 8224,
    "histo": 8225,
    "embrace": 8226,
    "leap": 8227,
    "microw": 8228,
    "forder": 8229,
    "Breath": 8230,
    "garbagecan": 8231,
    "stoveburner": 8232,
    "advisor": 8233,
    "shif": 8234,
    "adults": 8235,
    "rad": 8236,
    "osion": 8237,
    "Lead": 8238,
    "tet": 8239,
    "divisible": 8240,
    "ports": 8241,
    "evolved": 8242,
    "passionate": 8243,
    "emoji": 8244,
    "worst": 8245,
    "className": 8246,
    "Dim": 8247,
    "excitement": 8248,
    "craf": 8249,
    "immersive": 8250,
    "tick": 8251,
    "ston": 8252,
    "Friday": 8253,
    "ска": 8254,
    "yer": 8255,
    "nations": 8256,
    "saved": 8257,
    "ultimate": 8258,
    "liber": 8259,
    "tains": 8260,
    "traditions": 8261,
    "moments": 8262,
    "rew": 8263,
    "olo": 8264,
    "principal": 8265,
    "proven": 8266,
    "ша": 8267,
    "Cómo": 8268,
    "Ihre": 8269,
    "transmission": 8270,
    "APIs": 8271,
    "ensures": 8272,
    "Those": 8273,
    "della": 8274,
    "cdot": 8275,
    "AV": 8276,
    "Lit": 8277,
    "gonna": 8278,
    "cnica": 8279,
    "discrimination": 8280,
    "lowest": 8281,
    "rison": 8282,
    "kte": 8283,
    "diamond": 8284,
    "decades": 8285,
    "coher": 8286,
    "CV": 8287,
    "aband": 8288,
    "haven": 8289,
    "seemed": 8290,
    "вать": 8291,
    "grammat": 8292,
    "asleep": 8293,
    "ilder": 8294,
    "calculator": 8295,
    "Mart": 8296,
    "illustration": 8297,
    "Local": 8298,
    "treasure": 8299,
    "çais": 8300,
    "ный": 8301,
    "github": 8302,
    "Termin": 8303,
    "unic": 8304,
    "Systems": 8305,
    "sprint": 8306,
    "IL": 8307,
    "LU": 8308,
    "Conversation": 8309,
    "Bobby": 8310,
    "manufacturer": 8311,
    "elihood": 8312,
    "programmer": 8313,
    "Square": 8314,
    "bringing": 8315,
    "revers": 8316,
    "pictures": 8317,
    "narrow": 8318,
    "pg": 8319,
    "punch": 8320,
    "illing": 8321,
    "Making": 8322,
    "earn": 8323,
    "widget": 8324,
    "addressed": 8325,
    "din": 8326,
    "poet": 8327,
    "Northern": 8328,
    "ogy": 8329,
    "Online": 8330,
    "submarine": 8331,
    "WHERE": 8332,
    "entos": 8333,
    "Ven": 8334,
    "ères": 8335,
    "shadows": 8336,
    "Fro": 8337,
    "Free": 8338,
    "Caesar": 8339,
    "silver": 8340,
    "Active": 8341,
    "니다": 8342,
    "inge": 8343,
    "ные": 8344,
    "biased": 8345,
    "ifi": 8346,
    "SIZE": 8347,
    "Gesch": 8348,
    "vlo": 8349,
    "arise": 8350,
    "developments": 8351,
    "Station": 8352,
    "adjusting": 8353,
    "Proper": 8354,
    "stimul": 8355,
    "teor": 8356,
    "dust": 8357,
    "performs": 8358,
    "struggles": 8359,
    "asts": 8360,
    "Fast": 8361,
    "alert": 8362,
    "dad": 8363,
    "timer": 8364,
    "casual": 8365,
    "sid": 8366,
    "anna": 8367,
    "cv2": 8368,
    "clicked": 8369,
    "automated": 8370,
    "although": 8371,
    "borrow": 8372,
    "Found": 8373,
    "ке": 8374,
    "approval": 8375,
    "permissions": 8376,
    "transparent": 8377,
    "Subject": 8378,
    "aj": 8379,
    "kor": 8380,
    "hung": 8381,
    "lymp": 8382,
    "LA": 8383,
    "Biden": 8384,
    "embedding": 8385,
    "meta": 8386,
    "NS": 8387,
    "Android": 8388,
    "grat": 8389,
    "cipher": 8390,
    "Studio": 8391,
    "equity": 8392,
    "Unit": 8393,
    "UV": 8394,
    "itt": 8395,
    "Ye": 8396,
    "falling": 8397,
    "данны": 8398,
    "dd": 8399,
    "üss": 8400,
    "endall": 8401,
    "Maybe": 8402,
    "spoken": 8403,
    "Finnish": 8404,
    "democracy": 8405,
    "appeared": 8406,
    "cerely": 8407,
    "addressing": 8408,
    "recover": 8409,
    "dur": 8410,
    "repository": 8411,
    "zeit": 8412,
    "Always": 8413,
    "ambit": 8414,
    "inequality": 8415,
    "aggressive": 8416,
    "Fer": 8417,
    "customize": 8418,
    "biases": 8419,
    "Extract": 8420,
    "cad": 8421,
    "Pacific": 8422,
    "increasingly": 8423,
    "Phil": 8424,
    "На": 8425,
    "bid": 8426,
    "formats": 8427,
    "Fit": 8428,
    "Photo": 8429,
    "versions": 8430,
    "Query": 8431,
    "itut": 8432,
    "Depart": 8433,
    "Ow": 8434,
    "aes": 8435,
    "éri": 8436,
    "geb": 8437,
    "straw": 8438,
    "üt": 8439,
    "dominant": 8440,
    "loyalty": 8441,
    "combining": 8442,
    "uncertainty": 8443,
    "encrypted": 8444,
    "apt": 8445,
    "scratch": 8446,
    "professor": 8447,
    "Repeat": 8448,
    "рас": 8449,
    "ABC": 8450,
    "dividing": 8451,
    "festival": 8452,
    "chances": 8453,
    "Charles": 8454,
    "afternoon": 8455,
    "ethics": 8456,
    "icans": 8457,
    "definitive": 8458,
    "School": 8459,
    "podr": 8460,
    "rus": 8461,
    "wavel": 8462,
    "wavelength": 8463,
    "OUT": 8464,
    "busy": 8465,
    "Magic": 8466,
    "Indu": 8467,
    "ulary": 8468,
    "encode": 8469,
    "award": 8470,
    "cubic": 8471,
    "XX": 8472,
    "kers": 8473,
    "coach": 8474,
    "docker": 8475,
    "introduction": 8476,
    "moist": 8477,
    "français": 8478,
    "Royal": 8479,
    "aan": 8480,
    "consent": 8481,
    "charming": 8482,
    "clusion": 8483,
    "confused": 8484,
    "Standard": 8485,
    "Professional": 8486,
    "på": 8487,
    "Ot": 8488,
    "Alien": 8489,
    "balloon": 8490,
    "zij": 8491,
    "Jock": 8492,
    "Peron": 8493,
    "artif": 8494,
    "plum": 8495,
    "ilt": 8496,
    "transformers": 8497,
    "unks": 8498,
    "enjoyable": 8499,
    "emphasis": 8500,
    "modified": 8501,
    "Mos": 8502,
    "betra": 8503,
    "measured": 8504,
    "Integr": 8505,
    "tournament": 8506,
    "clipse": 8507,
    "abling": 8508,
    "Below": 8509,
    "respuesta": 8510,
    "urban": 8511,
    "tough": 8512,
    "salary": 8513,
    "Cong": 8514,
    "ор": 8515,
    "iteration": 8516,
    "History": 8517,
    "Continue": 8518,
    "actors": 8519,
    "compliance": 8520,
    "пу": 8521,
    "applicable": 8522,
    "ño": 8523,
    "organize": 8524,
    "Center": 8525,
    "BO": 8526,
    "mot": 8527,
    "acking": 8528,
    "ان": 8529,
    "noch": 8530,
    "chk": 8531,
    "fence": 8532,
    "spacecraft": 8533,
    "simultaneously": 8534,
    "toy": 8535,
    "soldiers": 8536,
    "bubble": 8537,
    "likelihood": 8538,
    "Sent": 8539,
    "inqu": 8540,
    "Networks": 8541,
    "bie": 8542,
    "loud": 8543,
    "respective": 8544,
    "comprom": 8545,
    "authority": 8546,
    "infection": 8547,
    "twist": 8548,
    "cham": 8549,
    "isi": 8550,
    "sey": 8551,
    "HD": 8552,
    "franch": 8553,
    "erve": 8554,
    "Ry": 8555,
    "Ken": 8556,
    "pag": 8557,
    "Ti": 8558,
    "Whe": 8559,
    "usam": 8560,
    "Hor": 8561,
    "owned": 8562,
    "animation": 8563,
    "uss": 8564,
    "alla": 8565,
    "Message": 8566,
    "aaaaaaaaaaaaaaaaaaaaaaaaaaaaaaaaaaaaaaaaaaaaaaaaaaaaaaaaaaaaaaaa": 8567,
    "yang": 8568,
    "ismo": 8569,
    "ية": 8570,
    "mentation": 8571,
    "kemon": 8572,
    "chemicals": 8573,
    "Jones": 8574,
    "git": 8575,
    "Souls": 8576,
    "theses": 8577,
    "rung": 8578,
    "hele": 8579,
    "Share": 8580,
    "legacy": 8581,
    "hearts": 8582,
    "LO": 8583,
    "sessions": 8584,
    "Training": 8585,
    "Again": 8586,
    "connecting": 8587,
    "attraction": 8588,
    "oring": 8589,
    "backend": 8590,
    "Redu": 8591,
    "bran": 8592,
    "dut": 8593,
    "malicious": 8594,
    "lado": 8595,
    "USB": 8596,
    "participate": 8597,
    "survey": 8598,
    "です": 8599,
    "Jeff": 8600,
    "Far": 8601,
    "arrays": 8602,
    "passes": 8603,
    "realm": 8604,
    "vat": 8605,
    "uer": 8606,
    "enjoying": 8607,
    "moi": 8608,
    "wenn": 8609,
    "pollution": 8610,
    "Poké": 8611,
    "Target": 8612,
    "realize": 8613,
    "xid": 8614,
    "joys": 8615,
    "Mis": 8616,
    "timid": 8617,
    "Masch": 8618,
    "Kendall": 8619,
    "CU": 8620,
    "Archite": 8621,
    "uguese": 8622,
    "quí": 8623,
    "evaluated": 8624,
    "grad": 8625,
    "stages": 8626,
    "href": 8627,
    "pointer": 8628,
    "sle": 8629,
    "contributed": 8630,
    "unpredictable": 8631,
    "reliability": 8632,
    "actively": 8633,
    "stan": 8634,
    "vulnerabilities": 8635,
    "hate": 8636,
    "adi": 8637,
    "Cell": 8638,
    "Watch": 8639,
    "umn": 8640,
    "ptive": 8641,
    "fmt": 8642,
    "Ant": 8643,
    "desktop": 8644,
    "copies": 8645,
    "cccccccccccccccccccccccccccccccc": 8646,
    "debu": 8647,
    "Ban": 8648,
    "Pokémon": 8649,
    "diabetes": 8650,
    "triple": 8651,
    "draft": 8652,
    "gate": 8653,
    "UNION": 8654,
    "wy": 8655,
    "cz": 8656,
    "Projekt": 8657,
    "panda": 8658,
    "cite": 8659,
    "Nether": 8660,
    "Dan": 8661,
    "stations": 8662,
    "Bru": 8663,
    "thanks": 8664,
    "Hon": 8665,
    "Models": 8666,
    "tamb": 8667,
    "fold": 8668,
    "Atl": 8669,
    "witch": 8670,
    "tube": 8671,
    "kindness": 8672,
    "ama": 8673,
    "lesson": 8674,
    "reflection": 8675,
    "phones": 8676,
    "printing": 8677,
    "tian": 8678,
    "adequ": 8679,
    "ihre": 8680,
    "sections": 8681,
    "neighb": 8682,
    "CRE": 8683,
    "ды": 8684,
    "explaining": 8685,
    "oy": 8686,
    "coverage": 8687,
    "Steve": 8688,
    "Swift": 8689,
    "refriger": 8690,
    "miner": 8691,
    "logs": 8692,
    "piel": 8693,
    "icio": 8694,
    "inn": 8695,
    "beacon": 8696,
    "contest": 8697,
    "rij": 8698,
    "Artificial": 8699,
    "intellect": 8700,
    "dough": 8701,
    "trace": 8702,
    "Problem": 8703,
    "dx": 8704,
    "reactions": 8705,
    "сли": 8706,
    "accord": 8707,
    "Int": 8708,
    "Silent": 8709,
    "candidates": 8710,
    "immer": 8711,
    "Sti": 8712,
    "celebrate": 8713,
    "variance": 8714,
    "restrictions": 8715,
    "alignment": 8716,
    "melody": 8717,
    "resent": 8718,
    "rapidly": 8719,
    "similarities": 8720,
    "convent": 8721,
    "BE": 8722,
    "iry": 8723,
    "ctx": 8724,
    "lers": 8725,
    "augment": 8726,
    "sar": 8727,
    "Offer": 8728,
    "husband": 8729,
    "Thomas": 8730,
    "Style": 8731,
    "vanilla": 8732,
    "practicing": 8733,
    "representative": 8734,
    "mining": 8735,
    "icism": 8736,
    "DNA": 8737,
    "founder": 8738,
    "appropriately": 8739,
    "pitch": 8740,
    "Sign": 8741,
    "Ak": 8742,
    "Inc": 8743,
    "hips": 8744,
    "füh": 8745,
    "Apply": 8746,
    "serial": 8747,
    "losses": 8748,
    "minister": 8749,
    "storytelling": 8750,
    "observations": 8751,
    "вле": 8752,
    "fis": 8753,
    "Entwick": 8754,
    "promise": 8755,
    "quotes": 8756,
    "thernet": 8757,
    "unwrap": 8758,
    "Газель": 8759,
    "hierarch": 8760,
    "wides": 8761,
    "onomous": 8762,
    "payments": 8763,
    "Champ": 8764,
    "thousands": 8765,
    "consistency": 8766,
    "readers": 8767,
    "apping": 8768,
    "mad": 8769,
    "haps": 8770,
    "Environ": 8771,
    "x3": 8772,
    "Attend": 8773,
    "Block": 8774,
    "vocabulary": 8775,
    "casts": 8776,
    "conse": 8777,
    "Lisa": 8778,
    "した": 8779,
    "Sor": 8780,
    "everyday": 8781,
    "queen": 8782,
    "mg": 8783,
    "mentions": 8784,
    "VAR": 8785,
    "Const": 8786,
    "ori": 8787,
    "rag": 8788,
    "RU": 8789,
    "estás": 8790,
    "pipeline": 8791,
    "rey": 8792,
    "attempts": 8793,
    "sono": 8794,
    "Application": 8795,
    "Ukrain": 8796,
    "Ros": 8797,
    "tracks": 8798,
    "CI": 8799,
    "skept": 8800,
    "YO": 8801,
    "microwave": 8802,
    "Batgirl": 8803,
    "Dutch": 8804,
    "alement": 8805,
    "Clear": 8806,
    "fastest": 8807,
    "GE": 8808,
    "lingu": 8809,
    "regist": 8810,
    "Über": 8811,
    "museums": 8812,
    "caption": 8813,
    "Linear": 8814,
    "epoch": 8815,
    "Advanced": 8816,
    "Band": 8817,
    "eight": 8818,
    "código": 8819,
    "etary": 8820,
    "deed": 8821,
    "relaxation": 8822,
    "estimates": 8823,
    "Cook": 8824,
    "cending": 8825,
    "wake": 8826,
    "gression": 8827,
    "Sea": 8828,
    "jan": 8829,
    "Econom": 8830,
    "legit": 8831,
    "ductor": 8832,
    "supernatural": 8833,
    "heating": 8834,
    "Univers": 8835,
    "attitude": 8836,
    "roots": 8837,
    "Together": 8838,
    "equipped": 8839,
    "generic": 8840,
    "lle": 8841,
    "Three": 8842,
    "endar": 8843,
    "Beach": 8844,
    "Intent": 8845,
    "slot": 8846,
    "recipient": 8847,
    "bli": 8848,
    "isen": 8849,
    "THE": 8850,
    "conda": 8851,
    "mortg": 8852,
    "engineers": 8853,
    "discre": 8854,
    "stats": 8855,
    "nesia": 8856,
    "videogames": 8857,
    "Ficker": 8858,
    "widespread": 8859,
    "Ora": 8860,
    "Mount": 8861,
    "interconnected": 8862,
    "pleasure": 8863,
    "achievements": 8864,
    "arse": 8865,
    "apor": 8866,
    "ears": 8867,
    "Author": 8868,
    "parking": 8869,
    "uling": 8870,
    "chickens": 8871,
    "Gor": 8872,
    "agues": 8873,
    "brave": 8874,
    "Include": 8875,
    "loans": 8876,
    "quarter": 8877,
    "calculating": 8878,
    "onion": 8879,
    "threshold": 8880,
    "adjusted": 8881,
    "ordered": 8882,
    "charged": 8883,
    "lux": 8884,
    "ца": 8885,
    "myth": 8886,
    "Sho": 8887,
    "Div": 8888,
    "Mexico": 8889,
    "Mich": 8890,
    "tile": 8891,
    "incent": 8892,
    "simpler": 8893,
    "mpeg": 8894,
    "Rain": 8895,
    "lí": 8896,
    "metro": 8897,
    "exemp": 8898,
    "cette": 8899,
    "Prompt": 8900,
    "вля": 8901,
    "uto": 8902,
    "namon": 8903,
    "ASE": 8904,
    "ря": 8905,
    "ARP": 8906,
    "bé": 8907,
    "вс": 8908,
    "LOCATION": 8909,
    "未央未央未央未央未央未央未央未央未央未央未央未央未央未央未央未央未央未央未央未央未央未央未央未央未央未央未央未央未央未央未央未央": 8910,
    "仅供": 8911,
    "仅供参": 8912,
    "仅供参考": 8913,
    "urers": 8914,
    "sale": 8915,
    "apore": 8916,
    "gradually": 8917,
    "director": 8918,
    "mostly": 8919,
    "superior": 8920,
    "airs": 8921,
    "lä": 8922,
    "Facebook": 8923,
    "Support": 8924,
    "east": 8925,
    "gods": 8926,
    "magaz": 8927,
    "shaping": 8928,
    "Report": 8929,
    "rek": 8930,
    "representations": 8931,
    "ownership": 8932,
    "Alternatively": 8933,
    "vio": 8934,
    "ecosystem": 8935,
    "Ring": 8936,
    "meals": 8937,
    "overfitting": 8938,
    "eless": 8939,
    "VR": 8940,
    "sleeping": 8941,
    "Men": 8942,
    "pineapple": 8943,
    "Would": 8944,
    "gic": 8945,
    "edit": 8946,
    "Moder": 8947,
    "theorem": 8948,
    "DER": 8949,
    "rim": 8950,
    "vegetable": 8951,
    "mite": 8952,
    "Vari": 8953,
    "icode": 8954,
    "inventory": 8955,
    "jest": 8956,
    "cob": 8957,
    "rhymes": 8958,
    "finger": 8959,
    "Form": 8960,
    "Ukrainian": 8961,
    "median": 8962,
    "cable": 8963,
    "Plot": 8964,
    "мен": 8965,
    "Loop": 8966,
    "eller": 8967,
    "gex": 8968,
    "omin": 8969,
    "boun": 8970,
    "Ent": 8971,
    "Stra": 8972,
    "lunar": 8973,
    "mich": 8974,
    "slower": 8975,
    "talented": 8976,
    "Comment": 8977,
    "sett": 8978,
    "cual": 8979,
    "rang": 8980,
    "Module": 8981,
    "Americans": 8982,
    "abor": 8983,
    "rp": 8984,
    "joint": 8985,
    "Nob": 8986,
    "fifth": 8987,
    "owners": 8988,
    "upside": 8989,
    "amento": 8990,
    "destruction": 8991,
    "Yellow": 8992,
    "Wil": 8993,
    "specifies": 8994,
    "eclipse": 8995,
    "Palace": 8996,
    "Music": 8997,
    "icians": 8998,
    "Stor": 8999,
    "destin": 9000,
    "drinks": 9001,
    "NO": 9002,
    "reibe": 9003,
    "southern": 9004,
    "texte": 9005,
    "pens": 9006,
    "chemistry": 9007,
    "cliente": 9008,
    "RPG": 9009,
    "bst": 9010,
    "Dragon": 9011,
    "sz": 9012,
    "printf": 9013,
    "fizz": 9014,
    "mä": 9015,
    "Slim": 9016,
    "decentralized": 9017,
    "respected": 9018,
    "Sincerely": 9019,
    "adjustments": 9020,
    "cant": 9021,
    "fal": 9022,
    "subtracting": 9023,
    "wizard": 9024,
    "extensions": 9025,
    "tails": 9026,
    "pover": 9027,
    "IR": 9028,
    "governments": 9029,
    "ete": 9030,
    "episode": 9031,
    "worlds": 9032,
    "gray": 9033,
    "ных": 9034,
    "supporting": 9035,
    "tactics": 9036,
    "equals": 9037,
    "concrete": 9038,
    "integrity": 9039,
    "worthy": 9040,
    "aga": 9041,
    "singer": 9042,
    "Until": 9043,
    "Var": 9044,
    "hub": 9045,
    "Different": 9046,
    "Automat": 9047,
    "uran": 9048,
    "Dawn": 9049,
    "Bad": 9050,
    "Tour": 9051,
    "MR": 9052,
    "ités": 9053,
    "beginners": 9054,
    "ße": 9055,
    "он": 9056,
    "Cra": 9057,
    "пере": 9058,
    "исполь": 9059,
    "edia": 9060,
    "SMAX": 9061,
    "Mand": 9062,
    "whatever": 9063,
    "army": 9064,
    "remained": 9065,
    "otics": 9066,
    "robots": 9067,
    "Close": 9068,
    "warming": 9069,
    "ental": 9070,
    "visualization": 9071,
    "unusual": 9072,
    "Esto": 9073,
    "adapted": 9074,
    "reset": 9075,
    "uego": 9076,
    "advoc": 9077,
    "Further": 9078,
    "sans": 9079,
    "pink": 9080,
    "factory": 9081,
    "distant": 9082,
    "paradox": 9083,
    "pasta": 9084,
    "usa": 9085,
    "rhyme": 9086,
    "amine": 9087,
    "generations": 9088,
    "strive": 9089,
    "priorities": 9090,
    "gestion": 9091,
    "warrior": 9092,
    "garant": 9093,
    "frequent": 9094,
    "nervous": 9095,
    "ushi": 9096,
    "pilot": 9097,
    "turing": 9098,
    "recept": 9099,
    "Global": 9100,
    "Zero": 9101,
    "mindfulness": 9102,
    "ulo": 9103,
    "Legends": 9104,
    "inder": 9105,
    "utely": 9106,
    "usammen": 9107,
    "ров": 9108,
    "Fed": 9109,
    "nth": 9110,
    "ania": 9111,
    "retail": 9112,
    "quin": 9113,
    "Prov": 9114,
    "Jag": 9115,
    "Theo": 9116,
    "chet": 9117,
    "producing": 9118,
    "millions": 9119,
    "alternatives": 9120,
    "pts": 9121,
    "entirely": 9122,
    "fluid": 9123,
    "capability": 9124,
    "unsupervised": 9125,
    "cycling": 9126,
    "anta": 9127,
    "tica": 9128,
    "Grow": 9129,
    "incorporate": 9130,
    "capes": 9131,
    "divine": 9132,
    "0000": 9133,
    "Pen": 9134,
    "Ra": 9135,
    "authorities": 9136,
    "Hung": 9137,
    "durable": 9138,
    "servative": 9139,
    "macy": 9140,
    "sick": 9141,
    "disput": 9142,
    "ugal": 9143,
    "keras": 9144,
    "esser": 9145,
    "mehr": 9146,
    "manif": 9147,
    "Simplif": 9148,
    "arithmetic": 9149,
    "medicine": 9150,
    "tc": 9151,
    "viewer": 9152,
    "Requ": 9153,
    "aller": 9154,
    "Success": 9155,
    "otlin": 9156,
    "x0": 9157,
    "wig": 9158,
    "Mu": 9159,
    "Say": 9160,
    "NULL": 9161,
    "IMAL": 9162,
    "вер": 9163,
    "mia": 9164,
    "Exp": 9165,
    "Bible": 9166,
    "plicates": 9167,
    "Audio": 9168,
    "oversi": 9169,
    "oversikt": 9170,
    "LOR": 9171,
    "collapse": 9172,
    "também": 9173,
    "complic": 9174,
    "FP": 9175,
    "spatial": 9176,
    "600": 9177,
    "believes": 9178,
    "creator": 9179,
    "pronoun": 9180,
    "wasn": 9181,
    "acteria": 9182,
    "english": 9183,
    "alike": 9184,
    "vow": 9185,
    "Wolf": 9186,
    "Hawai": 9187,
    "LED": 9188,
    "landmarks": 9189,
    "Food": 9190,
    "integrate": 9191,
    "await": 9192,
    "battles": 9193,
    "lem": 9194,
    "lum": 9195,
    "chains": 9196,
    "convenient": 9197,
    "tender": 9198,
    "quantity": 9199,
    "reless": 9200,
    "temple": 9201,
    "companion": 9202,
    "могу": 9203,
    "energ": 9204,
    "vec": 9205,
    "lake": 9206,
    "putting": 9207,
    "ffmpeg": 9208,
    "iOS": 9209,
    "Jobs": 9210,
    "bernet": 9211,
    "bernetes": 9212,
    "chord": 9213,
    "Journey": 9214,
    "Pet": 9215,
    "Advent": 9216,
    "emails": 9217,
    "лась": 9218,
    "陀螺": 9219,
    "Portuguese": 9220,
    "Chatbot": 9221,
    "tunnel": 9222,
    "brings": 9223,
    "iterates": 9224,
    "authors": 9225,
    "caution": 9226,
    "depicted": 9227,
    "mamm": 9228,
    "Ocean": 9229,
    "Sound": 9230,
    "caffeine": 9231,
    "entro": 9232,
    "Throughout": 9233,
    "poverty": 9234,
    "shelter": 9235,
    "vable": 9236,
    "describing": 9237,
    "bugs": 9238,
    "зы": 9239,
    "iento": 9240,
    "collective": 9241,
    "victory": 9242,
    "greenhouse": 9243,
    "African": 9244,
    "inal": 9245,
    "async": 9246,
    "polar": 9247,
    "SSD": 9248,
    "Custom": 9249,
    "tensions": 9250,
    "emon": 9251,
    "STM": 9252,
    "crowd": 9253,
    "Mot": 9254,
    "maximize": 9255,
    "sistema": 9256,
    "25": 9257,
    "Mass": 9258,
    "instruments": 9259,
    "Commons": 9260,
    "ffix": 9261,
    "mechanical": 9262,
    "scored": 9263,
    "его": 9264,
    "buzz": 9265,
    "immig": 9266,
    "ESP": 9267,
    "chte": 9268,
    "cero": 9269,
    "babys": 9270,
    "mice": 9271,
    "clan": 9272,
    "陀螺陀螺": 9273,
    "accom": 9274,
    "Way": 9275,
    "SW": 9276,
    "onym": 9277,
    "Low": 9278,
    "earning": 9279,
    "gger": 9280,
    "españ": 9281,
    "pregun": 9282,
    "iku": 9283,
    "viele": 9284,
    "enthus": 9285,
    "Lay": 9286,
    "vet": 9287,
    "alg": 9288,
    "cooperation": 9289,
    "Sud": 9290,
    "transparen": 9291,
    "objet": 9292,
    "scattered": 9293,
    "Observation": 9294,
    "multiplied": 9295,
    "bru": 9296,
    "seeds": 9297,
    "trains": 9298,
    "Body": 9299,
    "damaged": 9300,
    "Location": 9301,
    "suits": 9302,
    "DATE": 9303,
    "TT": 9304,
    "Suggest": 9305,
    "differenti": 9306,
    "buttons": 9307,
    "Force": 9308,
    "habil": 9309,
    "stellen": 9310,
    "sensitivity": 9311,
    "scor": 9312,
    "flower": 9313,
    "anderen": 9314,
    "classify": 9315,
    "aker": 9316,
    "onna": 9317,
    "Hash": 9318,
    "Zeit": 9319,
    "aire": 9320,
    "ба": 9321,
    "pump": 9322,
    "oline": 9323,
    "singular": 9324,
    "Astronomy": 9325,
    "CUDA": 9326,
    "deals": 9327,
    "TypeScript": 9328,
    "entrepreneur": 9329,
    "LAN": 9330,
    "facility": 9331,
    "Transform": 9332,
    "savings": 9333,
    "Federal": 9334,
    "rage": 9335,
    "domains": 9336,
    "enumer": 9337,
    "claimed": 9338,
    "keine": 9339,
    "leagues": 9340,
    "Limited": 9341,
    "gry": 9342,
    "padding": 9343,
    "Speed": 9344,
    "complement": 9345,
    "Marketing": 9346,
    "worried": 9347,
    "overwhelmed": 9348,
    "weekend": 9349,
    "union": 9350,
    "mur": 9351,
    "ieval": 9352,
    "Nag": 9353,
    "corpus": 9354,
    "lements": 9355,
    "neighbors": 9356,
    "suas": 9357,
    "ajud": 9358,
    "irrit": 9359,
    "featuring": 9360,
    "nement": 9361,
    "zona": 9362,
    "premi": 9363,
    "wendet": 9364,
    "Shell": 9365,
    "apocalyptic": 9366,
    "blan": 9367,
    "Bosch": 9368,
    "fortunately": 9369,
    "gently": 9370,
    "consum": 9371,
    "mol": 9372,
    "ität": 9373,
    "MC": 9374,
    "proceed": 9375,
    "Capital": 9376,
    "sicher": 9377,
    "się": 9378,
    "regex": 9379,
    "wend": 9380,
    "TYPE": 9381,
    "18": 9382,
    "Decision": 9383,
    "Ethernet": 9384,
    "Ely": 9385,
    "Acute": 9386,
    "Amnesia": 9387,
    "Aly": 9388,
    "AGE": 9389,
    "engagement": 9390,
    "dealing": 9391,
    "completing": 9392,
    "homes": 9393,
    "determines": 9394,
    "sensor": 9395,
    "Summary": 9396,
    "relaxing": 9397,
    "spells": 9398,
    "Instagram": 9399,
    "debated": 9400,
    "naturally": 9401,
    "habe": 9402,
    "itable": 9403,
    "youn": 9404,
    "younger": 9405,
    "roast": 9406,
    "civilizations": 9407,
    "steal": 9408,
    "Meow": 9409,
    "waters": 9410,
    "Ingre": 9411,
    "contra": 9412,
    "pH": 9413,
    "gases": 9414,
    "scalable": 9415,
    "Cri": 9416,
    "rail": 9417,
    "automatic": 9418,
    "tres": 9419,
    "Analytics": 9420,
    "streaming": 9421,
    "trial": 9422,
    "franchise": 9423,
    "frustr": 9424,
    "Robert": 9425,
    "ferences": 9426,
    "yield": 9427,
    "targets": 9428,
    "icket": 9429,
    "Cum": 9430,
    "clinical": 9431,
    "atility": 9432,
    "comedy": 9433,
    "cuts": 9434,
    "coordinate": 9435,
    "cane": 9436,
    "Office": 9437,
    "Assume": 9438,
    "tensorflow": 9439,
    "Conclusion": 9440,
    "coal": 9441,
    "Exe": 9442,
    "responds": 9443,
    "occurren": 9444,
    "Bowl": 9445,
    "rose": 9446,
    "Solar": 9447,
    "tout": 9448,
    "может": 9449,
    "disks": 9450,
    "cule": 9451,
    "creep": 9452,
    "weiter": 9453,
    "polynom": 9454,
    "Infinite": 9455,
    "zijn": 9456,
    "manual": 9457,
    "treatments": 9458,
    "slices": 9459,
    "Ah": 9460,
    "dear": 9461,
    "ologist": 9462,
    "Natural": 9463,
    "acto": 9464,
    "palab": 9465,
    "instrument": 9466,
    "potatoes": 9467,
    "rewarding": 9468,
    "Sequ": 9469,
    "roof": 9470,
    "END": 9471,
    "Prior": 9472,
    "patience": 9473,
    "gina": 9474,
    "Welcome": 9475,
    "packed": 9476,
    "Tools": 9477,
    "wrest": 9478,
    "promin": 9479,
    "Exer": 9480,
    "stic": 9481,
    "csharp": 9482,
    "haz": 9483,
    "olive": 9484,
    "tus": 9485,
    "Tri": 9486,
    "oty": 9487,
    "Spark": 9488,
    "conjun": 9489,
    "Hard": 9490,
    "riage": 9491,
    "implies": 9492,
    "quit": 9493,
    "coat": 9494,
    "veled": 9495,
    "Mel": 9496,
    "uminum": 9497,
    "workplace": 9498,
    "CHAR": 9499,
    "lag": 9500,
    "rep": 9501,
    "prince": 9502,
    "intricate": 9503,
    "ак": 9504,
    "oblig": 9505,
    "nou": 9506,
    "paragraphs": 9507,
    "instant": 9508,
    "kä": 9509,
    "Fields": 9510,
    "remainder": 9511,
    "Bes": 9512,
    "duplicates": 9513,
    "пти": 9514,
    "refine": 9515,
    "lambda": 9516,
    "inspiration": 9517,
    "LS": 9518,
    "bies": 9519,
    "remembered": 9520,
    "metabol": 9521,
    "harsh": 9522,
    "ís": 9523,
    "Stan": 9524,
    "pollo": 9525,
    "bite": 9526,
    "territory": 9527,
    "injured": 9528,
    "appreciation": 9529,
    "preparing": 9530,
    "ruled": 9531,
    "Ri": 9532,
    "tailored": 9533,
    "icago": 9534,
    "nick": 9535,
    "nan": 9536,
    "distribute": 9537,
    "shots": 9538,
    "ometric": 9539,
    "competitors": 9540,
    "scare": 9541,
    "itarian": 9542,
    "satisfi": 9543,
    "ql": 9544,
    "expressing": 9545,
    "shower": 9546,
    "expon": 9547,
    "Pur": 9548,
    "ifs": 9549,
    "mush": 9550,
    "pride": 9551,
    "кт": 9552,
    "Little": 9553,
    "jag": 9554,
    "clarification": 9555,
    "Flu": 9556,
    "По": 9557,
    "Case": 9558,
    "Saturn": 9559,
    "för": 9560,
    "cinnamon": 9561,
    "Sort": 9562,
    "Being": 9563,
    "stän": 9564,
    "nap": 9565,
    "clue": 9566,
    "thyroid": 9567,
    "ANIMAL": 9568,
    "Performance": 9569,
    "Sweden": 9570,
    "Oracle": 9571,
    "cave": 9572,
    "certainly": 9573,
    "são": 9574,
    "Nach": 9575,
    "affects": 9576,
    "mang": 9577,
    "achel": 9578,
    "hearing": 9579,
    "Understanding": 9580,
    "veter": 9581,
    "permit": 9582,
    "transformation": 9583,
    "ffy": 9584,
    "mand": 9585,
    "integral": 9586,
    "imate": 9587,
    "Contact": 9588,
    "sampling": 9589,
    "Integer": 9590,
    "FizzBuzz": 9591,
    "probabilities": 9592,
    "mitigate": 9593,
    "temples": 9594,
    "consistently": 9595,
    "nod": 9596,
    "enables": 9597,
    "Tech": 9598,
    "jumps": 9599,
    "recursion": 9600,
    "MAN": 9601,
    "Header": 9602,
    "reps": 9603,
    "ência": 9604,
    "traba": 9605,
    "convolution": 9606,
    "grows": 9607,
    "abase": 9608,
    "ות": 9609,
    "Pod": 9610,
    "boxes": 9611,
    "UG": 9612,
    "stops": 9613,
    "PA": 9614,
    "лет": 9615,
    "VG": 9616,
    "vertices": 9617,
    "paie": 9618,
    "bpm": 9619,
    "explicitly": 9620,
    "pandem": 9621,
    "predicted": 9622,
    "Tax": 9623,
    "tiemp": 9624,
    "launched": 9625,
    "arest": 9626,
    "investigate": 9627,
    "número": 9628,
    "tien": 9629,
    "hack": 9630,
    "vents": 9631,
    "adata": 9632,
    "beef": 9633,
    "attach": 9634,
    "Analyze": 9635,
    "propri": 9636,
    "ketch": 9637,
    "php": 9638,
    "autres": 9639,
    "chaft": 9640,
    "Pros": 9641,
    "cie": 9642,
    "dere": 9643,
    "medieval": 9644,
    "church": 9645,
    "precis": 9646,
    "adjac": 9647,
    "editing": 9648,
    "backup": 9649,
    "Ensure": 9650,
    "ком": 9651,
    "proces": 9652,
    "priority": 9653,
    "enterprise": 9654,
    "mê": 9655,
    "dating": 9656,
    "tat": 9657,
    "lasting": 9658,
    "fraudul": 9659,
    "mixing": 9660,
    "wort": 9661,
    "liters": 9662,
    "sophistic": 9663,
    "minist": 9664,
    "Controll": 9665,
    "boots": 9666,
    "comien": 9667,
    "primes": 9668,
    "Pokemon": 9669,
    "Sched": 9670,
    "allerg": 9671,
    "supportive": 9672,
    "cé": 9673,
    "adian": 9674,
    "Yeah": 9675,
    "assembly": 9676,
    "ство": 9677,
    "worse": 9678,
    "ardo": 9679,
    "vertical": 9680,
    "eren": 9681,
    "meg": 9682,
    "pill": 9683,
    "halten": 9684,
    "Register": 9685,
    "GO": 9686,
    "ім": 9687,
    "floating": 9688,
    "intuitive": 9689,
    "uncertain": 9690,
    "Finland": 9691,
    "répon": 9692,
    "guards": 9693,
    "facilities": 9694,
    "reds": 9695,
    "reduction": 9696,
    "scales": 9697,
    "Initialize": 9698,
    "iders": 9699,
    "collected": 9700,
    "forgot": 9701,
    "provoking": 9702,
    "Pas": 9703,
    "physi": 9704,
    "Cross": 9705,
    "Graph": 9706,
    "reinforcement": 9707,
    "Chall": 9708,
    "schol": 9709,
    "acceptable": 9710,
    "terday": 9711,
    "opponents": 9712,
    "incredible": 9713,
    "confront": 9714,
    "boys": 9715,
    "carto": 9716,
    "discount": 9717,
    "quo": 9718,
    "Chicago": 9719,
    "physic": 9720,
    "illet": 9721,
    "subscript": 9722,
    "extend": 9723,
    "anni": 9724,
    "couv": 9725,
    "cio": 9726,
    "Lake": 9727,
    "purple": 9728,
    "Risk": 9729,
    "navig": 9730,
    "opens": 9731,
    "так": 9732,
    "peuvent": 9733,
    "Wer": 9734,
    "puedes": 9735,
    "Ig": 9736,
    "gem": 9737,
    "idos": 9738,
    "sophisticated": 9739,
    "há": 9740,
    "communications": 9741,
    "intellectual": 9742,
    "Spl": 9743,
    "cers": 9744,
    "wur": 9745,
    "diese": 9746,
    "agile": 9747,
    "oldest": 9748,
    "absur": 9749,
    "tek": 9750,
    "tt": 9751,
    "nuts": 9752,
    "eten": 9753,
    "Shadow": 9754,
    "LINE": 9755,
    "towelholder": 9756,
    "wedding": 9757,
    "evolve": 9758,
    "tourist": 9759,
    "commerce": 9760,
    "evolving": 9761,
    "Vector": 9762,
    "idi": 9763,
    "rhythm": 9764,
    "arrive": 9765,
    "portray": 9766,
    "deaths": 9767,
    "mn": 9768,
    "Apollo": 9769,
    "uristic": 9770,
    "stood": 9771,
    "learns": 9772,
    "ári": 9773,
    "Imm": 9774,
    "emerged": 9775,
    "bacteria": 9776,
    "teaching": 9777,
    "advancements": 9778,
    "organisms": 9779,
    "Cast": 9780,
    "vacu": 9781,
    "matched": 9782,
    "attached": 9783,
    "kno": 9784,
    "пол": 9785,
    "oriented": 9786,
    "inverse": 9787,
    "observation": 9788,
    "IE": 9789,
    "Future": 9790,
    "vere": 9791,
    "crash": 9792,
    "Flo": 9793,
    "issance": 9794,
    "bicy": 9795,
    "autor": 9796,
    "kel": 9797,
    "brands": 9798,
    "istor": 9799,
    "Angeles": 9800,
    "кой": 9801,
    "acceleration": 9802,
    "Desktop": 9803,
    "enjoys": 9804,
    "VE": 9805,
    "под": 9806,
    "votes": 9807,
    "surfaces": 9808,
    "FIN": 9809,
    "vaccines": 9810,
    "vaccine": 9811,
    "Voici": 9812,
    "mmin": 9813,
    "tof": 9814,
    "Disco": 9815,
    "LCS": 9816,
    "distinctive": 9817,
    "reign": 9818,
    "propose": 9819,
    "matching": 9820,
    "ADD": 9821,
    "OP": 9822,
    "meanings": 9823,
    "asteroid": 9824,
    "rotation": 9825,
    "IST": 9826,
    "Listen": 9827,
    "compla": 9828,
    "convenience": 9829,
    "subjects": 9830,
    "Ultra": 9831,
    "igo": 9832,
    "Equ": 9833,
    "continuously": 9834,
    "mediate": 9835,
    "armor": 9836,
    "fry": 9837,
    "cultiv": 9838,
    "timeline": 9839,
    "complicated": 9840,
    "desk": 9841,
    "atmospher": 9842,
    "Wars": 9843,
    "factual": 9844,
    "introducing": 9845,
    "evenly": 9846,
    "comi": 9847,
    "depression": 9848,
    "ila": 9849,
    "Albert": 9850,
    "seal": 9851,
    "rá": 9852,
    "resistant": 9853,
    "可以": 9854,
    "ambig": 9855,
    "soup": 9856,
    "emphasize": 9857,
    "tast": 9858,
    "entered": 9859,
    "personas": 9860,
    "regar": 9861,
    "experimental": 9862,
    "passwords": 9863,
    "inkle": 9864,
    "Bul": 9865,
    "avait": 9866,
    "Industri": 9867,
    "kv": 9868,
    "upset": 9869,
    "ного": 9870,
    "recommendation": 9871,
    "pei": 9872,
    "Beth": 9873,
    "könn": 9874,
    "photograph": 9875,
    "optional": 9876,
    "isolation": 9877,
    "consumers": 9878,
    "ursday": 9879,
    "teil": 9880,
    "Elysium": 9881,
    "drying": 9882,
    "求金額": 9883,
    "thoroughly": 9884,
    "Turkey": 9885,
    "heroes": 9886,
    "climbing": 9887,
    "nested": 9888,
    "biology": 9889,
    "incident": 9890,
    "warmth": 9891,
    "onder": 9892,
    "algun": 9893,
    "optimizer": 9894,
    "manageable": 9895,
    "Furthermore": 9896,
    "prisoners": 9897,
    "pier": 9898,
    "nights": 9899,
    "snacks": 9900,
    "hosts": 9901,
    "extraction": 9902,
    "rir": 9903,
    "ores": 9904,
    "eligible": 9905,
    "permission": 9906,
    "regularization": 9907,
    "cock": 9908,
    "amas": 9909,
    "pueden": 9910,
    "permanent": 9911,
    "shi": 9912,
    "extracted": 9913,
    "nums": 9914,
    "Experience": 9915,
    "logging": 9916,
    "anymore": 9917,
    "Having": 9918,
    "verwendet": 9919,
    "andere": 9920,
    "specifications": 9921,
    "morph": 9922,
    "ETF": 9923,
    "JO": 9924,
    "plots": 9925,
    "все": 9926,
    "HS": 9927,
    "sehr": 9928,
    "andid": 9929,
    "Wir": 9930,
    "announced": 9931,
    "Midjourney": 9932,
    "bitwise": 9933,
    "COLOR": 9934,
    "eq": 9935,
    "qubits": 9936,
    "FET": 9937,
    "Alyx": 9938,
    "後の": 9939,
    "請求金額": 9940,
    "fluctu": 9941,
    "Aut": 9942,
    "différen": 9943,
    "hobbies": 9944,
[...]
